{
  "version": "1.0",
  "truncation": null,
  "padding": null,
  "added_tokens": [
    {
      "id": 0,
      "content": "[UNK]",
      "single_word": false,
      "lstrip": false,
      "rstrip": false,
      "normalized": false,
      "special": true
    }
  ],
  "normalizer": {
    "type": "NFKC"
  },
  "pre_tokenizer": {
    "type": "Metaspace",
    "replacement": "▁",
    "prepend_scheme": "never",
    "split": true
  },
  "post_processor": null,
  "decoder": {
    "type": "Metaspace",
    "replacement": "▁",
    "prepend_scheme": "never",
    "split": true
  },
  "model": {
    "type": "BPE",
    "dropout": null,
    "unk_token": "[UNK]",
    "continuing_subword_prefix": null,
    "end_of_word_suffix": null,
    "fuse_unk": false,
    "byte_fallback": false,
    "ignore_merges": false,
    "vocab": {
      "[UNK]": 0,
      "\n": 1,
      "!": 2,
      "\"": 3,
      "#": 4,
      "$": 5,
      "%": 6,
      "&": 7,
      "'": 8,
      "(": 9,
      ")": 10,
      "*": 11,
      "+": 12,
      ",": 13,
      "-": 14,
      ".": 15,
      "/": 16,
      "0": 17,
      "1": 18,
      "2": 19,
      "3": 20,
      "4": 21,
      "5": 22,
      "6": 23,
      "7": 24,
      "8": 25,
      "9": 26,
      ":": 27,
      ";": 28,
      "<": 29,
      "=": 30,
      ">": 31,
      "?": 32,
      "A": 33,
      "B": 34,
      "C": 35,
      "D": 36,
      "E": 37,
      "F": 38,
      "G": 39,
      "H": 40,
      "I": 41,
      "J": 42,
      "K": 43,
      "L": 44,
      "M": 45,
      "N": 46,
      "O": 47,
      "P": 48,
      "Q": 49,
      "R": 50,
      "S": 51,
      "T": 52,
      "U": 53,
      "V": 54,
      "W": 55,
      "X": 56,
      "Y": 57,
      "Z": 58,
      "[": 59,
      "\\": 60,
      "]": 61,
      "^": 62,
      "_": 63,
      "`": 64,
      "a": 65,
      "b": 66,
      "c": 67,
      "d": 68,
      "e": 69,
      "f": 70,
      "g": 71,
      "h": 72,
      "i": 73,
      "j": 74,
      "k": 75,
      "l": 76,
      "m": 77,
      "n": 78,
      "o": 79,
      "p": 80,
      "q": 81,
      "r": 82,
      "s": 83,
      "t": 84,
      "u": 85,
      "v": 86,
      "w": 87,
      "x": 88,
      "y": 89,
      "z": 90,
      "{": 91,
      "|": 92,
      "}": 93,
      "~": 94,
      "°": 95,
      "·": 96,
      "Ö": 97,
      "à": 98,
      "á": 99,
      "â": 100,
      "æ": 101,
      "ç": 102,
      "è": 103,
      "é": 104,
      "í": 105,
      "î": 106,
      "ñ": 107,
      "ö": 108,
      "ü": 109,
      "ā": 110,
      "ī": 111,
      "İ": 112,
      "Ś": 113,
      "ś": 114,
      "ū": 115,
      "ș": 116,
      "ə": 117,
      "ɦ": 118,
      "ɪ": 119,
      "ɾ": 120,
      "ʊ": 121,
      "ʻ": 122,
      "ʼ": 123,
      "ˈ": 124,
      "ː": 125,
      "ί": 126,
      "α": 127,
      "δ": 128,
      "θ": 129,
      "ν": 130,
      "ο": 131,
      "π": 132,
      "ς": 133,
      "ό": 134,
      "ँ": 135,
      "ं": 136,
      "ः": 137,
      "अ": 138,
      "आ": 139,
      "इ": 140,
      "ई": 141,
      "उ": 142,
      "ऊ": 143,
      "ऋ": 144,
      "ऍ": 145,
      "ए": 146,
      "ऐ": 147,
      "ऑ": 148,
      "ओ": 149,
      "औ": 150,
      "क": 151,
      "ख": 152,
      "ग": 153,
      "घ": 154,
      "ङ": 155,
      "च": 156,
      "छ": 157,
      "ज": 158,
      "झ": 159,
      "ञ": 160,
      "ट": 161,
      "ठ": 162,
      "ड": 163,
      "ढ": 164,
      "ण": 165,
      "त": 166,
      "थ": 167,
      "द": 168,
      "ध": 169,
      "न": 170,
      "प": 171,
      "फ": 172,
      "ब": 173,
      "भ": 174,
      "म": 175,
      "य": 176,
      "र": 177,
      "ल": 178,
      "ळ": 179,
      "व": 180,
      "श": 181,
      "ष": 182,
      "स": 183,
      "ह": 184,
      "़": 185,
      "ा": 186,
      "ि": 187,
      "ी": 188,
      "ु": 189,
      "ू": 190,
      "ृ": 191,
      "े": 192,
      "ै": 193,
      "ॉ": 194,
      "ॊ": 195,
      "ो": 196,
      "ौ": 197,
      "्": 198,
      "।": 199,
      "०": 200,
      "१": 201,
      "२": 202,
      "३": 203,
      "४": 204,
      "५": 205,
      "६": 206,
      "७": 207,
      "८": 208,
      "९": 209,
      "॰": 210,
      "ஃ": 211,
      "அ": 212,
      "ஆ": 213,
      "இ": 214,
      "ஈ": 215,
      "உ": 216,
      "ஊ": 217,
      "எ": 218,
      "ஏ": 219,
      "ஐ": 220,
      "ஒ": 221,
      "ஓ": 222,
      "க": 223,
      "ங": 224,
      "ச": 225,
      "ஜ": 226,
      "ஞ": 227,
      "ட": 228,
      "ண": 229,
      "த": 230,
      "ந": 231,
      "ன": 232,
      "ப": 233,
      "ம": 234,
      "ய": 235,
      "ர": 236,
      "ற": 237,
      "ல": 238,
      "ள": 239,
      "ழ": 240,
      "வ": 241,
      "ஷ": 242,
      "ஸ": 243,
      "ஹ": 244,
      "ா": 245,
      "ி": 246,
      "ீ": 247,
      "ு": 248,
      "ூ": 249,
      "ெ": 250,
      "ே": 251,
      "ை": 252,
      "ொ": 253,
      "ோ": 254,
      "ௌ": 255,
      "்": 256,
      "ం": 257,
      "ః": 258,
      "అ": 259,
      "ఆ": 260,
      "ఇ": 261,
      "ఈ": 262,
      "ఉ": 263,
      "ఋ": 264,
      "ఎ": 265,
      "ఏ": 266,
      "ఐ": 267,
      "ఒ": 268,
      "ఓ": 269,
      "ఔ": 270,
      "క": 271,
      "ఖ": 272,
      "గ": 273,
      "ఘ": 274,
      "చ": 275,
      "ఛ": 276,
      "జ": 277,
      "ఞ": 278,
      "ట": 279,
      "ఠ": 280,
      "డ": 281,
      "ఢ": 282,
      "ణ": 283,
      "త": 284,
      "థ": 285,
      "ద": 286,
      "ధ": 287,
      "న": 288,
      "ప": 289,
      "ఫ": 290,
      "బ": 291,
      "భ": 292,
      "మ": 293,
      "య": 294,
      "ర": 295,
      "ల": 296,
      "ళ": 297,
      "వ": 298,
      "శ": 299,
      "ష": 300,
      "స": 301,
      "హ": 302,
      "ా": 303,
      "ి": 304,
      "ీ": 305,
      "ు": 306,
      "ూ": 307,
      "ృ": 308,
      "ె": 309,
      "ే": 310,
      "ై": 311,
      "ొ": 312,
      "ో": 313,
      "ౌ": 314,
      "్": 315,
      "ṅ": 316,
      "ṇ": 317,
      "Ṛ": 318,
      "ṣ": 319,
      "ṭ": 320,
      "Ἰ": 321,
      "‌": 322,
      "‍": 323,
      "‎": 324,
      "–": 325,
      "—": 326,
      "‘": 327,
      "’": 328,
      "“": 329,
      "”": 330,
      "†": 331,
      "•": 332,
      "′": 333,
      "‹": 334,
      "›": 335,
      "⁡": 336,
      "₹": 337,
      "↑": 338,
      "−": 339,
      "▁": 340,
      "﻿": 341,
      "wi": 342,
      "ki": 343,
      "wiki": 344,
      "di": 345,
      "a.": 346,
      "or": 347,
      "tt": 348,
      ":/": 349,
      "htt": 350,
      "http": 351,
      "://": 352,
      "](": 353,
      "https": 354,
      "https://": 355,
      "edi": 356,
      "](https://": 357,
      "g/": 358,
      "org/": 359,
      "pedi": 360,
      "a.org/": 361,
      "a.org/wiki": 362,
      "a.org/wiki/": 363,
      "wikipedi": 364,
      "wikipedia.org/wiki/": 365,
      "▁[": 366,
      "te": 367,
      "▁\"": 368,
      "\")": 369,
      "in": 370,
      ".wikipedia.org/wiki/": 371,
      "்த": 372,
      "en": 373,
      "an": 374,
      "on": 375,
      "20": 376,
      "ிய": 377,
      "ti": 378,
      "re": 379,
      "th": 380,
      "al": 381,
      "er": 382,
      "ந்த": 383,
      "ar": 384,
      "ta.": 385,
      "்க": 386,
      "](https://ta.": 387,
      "](https://ta.wikipedia.org/wiki/": 388,
      "In": 389,
      "ci": 390,
      "hi": 391,
      "ப்": 392,
      "Indi": 393,
      "es": 394,
      "இந்த": 395,
      "ம்": 396,
      "இந்திய": 397,
      "▁|": 398,
      "India": 399,
      "](https://en": 400,
      "ன்": 401,
      "](https://en.wikipedia.org/wiki/": 402,
      "்ட": 403,
      "te_": 404,
      "▁ப": 405,
      "of": 406,
      "#ci": 407,
      "#cite_": 408,
      "tion": 409,
      "om": 410,
      "இந்தியா": 411,
      "ல்": 412,
      "ப்ப": 413,
      "OT": 414,
      "ार": 415,
      "201": 416,
      "the": 417,
      "▁(": 418,
      "is": 419,
      "](https://hi": 420,
      "](https://hi.wikipedia.org/wiki/": 421,
      "▁क": 422,
      "oo": 423,
      "ou": 424,
      "19": 425,
      "க்க": 426,
      "and": 427,
      "▁-": 428,
      "్ర": 429,
      "ர்": 430,
      "து": 431,
      "200": 432,
      "ட்ட": 433,
      "्र": 434,
      "](https://te": 435,
      "](https://te.wikipedia.org/wiki/": 436,
      "ri": 437,
      "▁of": 438,
      "le": 439,
      "▁the": 440,
      "](https://ta.wikipedia.org/wiki/இந்தியா": 441,
      "▁ம": 442,
      "-0": 443,
      "no": 444,
      "as": 445,
      "த்த": 446,
      "▁க": 447,
      "ள்": 448,
      "ార": 449,
      "भार": 450,
      "भारत": 451,
      "ed": 452,
      "ook": 453,
      "▁த": 454,
      "ரு": 455,
      "ref": 456,
      "te-": 457,
      "▁स": 458,
      "ac": 459,
      "#cite_no": 460,
      "#cite_ref": 461,
      "#cite_note-": 462,
      "#cite_ref-": 463,
      "\\_": 464,
      "[[": 465,
      "et": 466,
      "ate": 467,
      "ation": 468,
      "ில்": 469,
      "li": 470,
      "78": 471,
      "-1": 472,
      "▁in": 473,
      "am": 474,
      "ும்": 475,
      "▁வ": 476,
      "id": 477,
      "ின்": 478,
      "FO": 479,
      "**": 480,
      "NOT": 481,
      "OTNOT": 482,
      "FOOTNOT": 483,
      "FOOTNOTE": 484,
      "ent": 485,
      "com": 486,
      "),": 487,
      "▁C": 488,
      "▁p": 489,
      "ing": 490,
      "▁இ": 491,
      "▁and": 492,
      "si": 493,
      "▁A": 494,
      "st": 495,
      "ాల": 496,
      "▁அ": 497,
      "ag": 498,
      "at": 499,
      ".\n": 500,
      "சி": 501,
      "▁India": 502,
      "ங்க": 503,
      "ற்": 504,
      "▁म": 505,
      "978": 506,
      "्य": 507,
      "్య": 508,
      "▁S": 509,
      "ww": 510,
      "](https://en.wikipedia.org/wiki/India": 511,
      "ப்பு": 512,
      "▁1": 513,
      "ve": 514,
      "த்": 515,
      "ad": 516,
      "ைய": 517,
      "▁[↑": 518,
      "\"),": 519,
      "lo": 520,
      "భార": 521,
      "ான": 522,
      "భారత": 523,
      "ch": 524,
      "we": 525,
      "க்": 526,
      "దే": 527,
      "▁ந": 528,
      "our": 529,
      "▁201": 530,
      "దేశ": 531,
      "స్": 532,
      "▁f": 533,
      "lin": 534,
      "रा": 535,
      "▁प": 536,
      "▁P": 537,
      "▁ప": 538,
      "▁s": 539,
      "red": 540,
      "00": 541,
      "to": 542,
      "ul": 543,
      ").": 544,
      "um": 545,
      "ற்ற": 546,
      "సా": 547,
      "-0)": 548,
      "ிர": 549,
      "21": 550,
      "▁ச": 551,
      "ாக": 552,
      "book": 553,
      "ర్": 554,
      "ாட்ட": 555,
      "ic": 556,
      "he": 557,
      "ang": 558,
      "es/": 559,
      "▁b": 560,
      "=1": 561,
      "▁உ": 562,
      "books": 563,
      "న్": 564,
      "ro": 565,
      "indi": 566,
      "link": 567,
      "ें": 568,
      "edit": 569,
      "action": 570,
      "▁c": 571,
      "ra": 572,
      "ान": 573,
      "▁ஆ": 574,
      "us": 575,
      "action=": 576,
      "?action=": 577,
      "&red": 578,
      "link=1": 579,
      "edit&red": 580,
      "?action=edit&red": 581,
      "?action=edit&redlink=1": 582,
      "ce": 583,
      "டு": 584,
      "ver": 585,
      "தி": 586,
      "र्": 587,
      "ண்": 588,
      "▁के": 589,
      ".[[": 590,
      "▁R": 591,
      "IS": 592,
      "](https://hi.wikipedia.org/wiki/भारत": 593,
      "▁M": 594,
      "com/": 595,
      "pg": 596,
      "un": 597,
      "web": 598,
      "ண்ட": 599,
      "ourc": 600,
      "23": 601,
      "cal": 602,
      "▁ह": 603,
      "ter": 604,
      "IT": 605,
      "ory": 606,
      "fi": 607,
      "லை": 608,
      "BN": 609,
      "25": 610,
      "chi": 611,
      "]](https://ta.wikipedia.org/wiki/இந்தியா": 612,
      "](https://ta.wikipedia.org/wiki/இந்தியா#cite_ref-": 613,
      "]](https://ta.wikipedia.org/wiki/இந்தியா#cite_note-": 614,
      "10": 615,
      "ER": 616,
      "▁m": 617,
      "of_": 618,
      "्त": 619,
      "EF": 620,
      "_of_": 621,
      "ISBN": 622,
      "ITER": 623,
      "Book": 624,
      ".com/": 625,
      "ur": 626,
      "ITEREF": 627,
      "s/": 628,
      "199": 629,
      "ources/": 630,
      "it": 631,
      "ist": 632,
      "లు": 633,
      ":Book": 634,
      "Sources/": 635,
      ":BookSources/": 636,
      "ாட்டு": 637,
      "26": 638,
      ":BookSources/978": 639,
      "రా": 640,
      "▁T": 641,
      "சு": 642,
      ".org/": 643,
      "#C": 644,
      "pe": 645,
      "#CITEREF": 646,
      "▁*": 647,
      "res": 648,
      "▁a": 649,
      "ொட": 650,
      "ள்ள": 651,
      "▁|\n": 652,
      "ன்ன": 653,
      "భారతదేశ": 654,
      "▁**": 655,
      "ச்": 656,
      ")\n": 657,
      "tic": 658,
      "il": 659,
      "या": 660,
      ".శ": 661,
      ".శ.": 662,
      "िक": 663,
      "లో": 664,
      "28": 665,
      "ved": 666,
      ".j": 667,
      "\")\n": 668,
      "-4": 669,
      "సా.శ.": 670,
      "24": 671,
      "▁D": 672,
      "-3": 673,
      "_த": 674,
      "age": 675,
      "கள": 676,
      "▁में": 677,
      "▁క": 678,
      "enti": 679,
      "ld": 680,
      "de": 681,
      "ीय": 682,
      "ni": 683,
      "▁B": 684,
      "▁to": 685,
      "www": 686,
      "-8": 687,
      "▁अ": 688,
      "▁200": 689,
      "▁எ": 690,
      "கு": 691,
      "www.": 692,
      "Indian": 693,
      "ment": 694,
      "ir": 695,
      "ber": 696,
      "டி": 697,
      "త్ర": 698,
      "ொடர்": 699,
      "▁[↑](https://ta.wikipedia.org/wiki/இந்தியா#cite_ref-": 700,
      "mp": 701,
      "ాలు": 702,
      "50": 703,
      "a/": 704,
      "ay": 705,
      "రి": 706,
      "சிய": 707,
      "క్": 708,
      "ig": 709,
      "▁w": 710,
      "](https://ta.wikipedia.org/wiki/ப": 711,
      "ంద": 712,
      "con": 713,
      "identi": 714,
      "cial": 715,
      "fier": 716,
      "identifier": 717,
      "up": 718,
      "மை": 719,
      "ों": 720,
      ".g": 721,
      "ని": 722,
      "11": 723,
      "▁వ": 724,
      "archi": 725,
      "calf": 726,
      "ty": 727,
      "கள்": 728,
      "ew": 729,
      "etcalf": 730,
      "ol": 731,
      "22": 732,
      "sh": 733,
      "वि": 734,
      "சிற": 735,
      "ன்னாட்டு": 736,
      "_(": 737,
      "ना": 738,
      "ில": 739,
      "_ப": 740,
      "▁e": 741,
      "▁ज": 742,
      "▁J": 743,
      "्ष": 744,
      "ల్": 745,
      "30": 746,
      "భారతదేశం": 747,
      "ly": 748,
      "du": 749,
      "ाल": 750,
      "க்கு": 751,
      "▁G": 752,
      "▁E": 753,
      "·**": 754,
      "-0-": 755,
      "▁**·**": 756,
      "identifier)": 757,
      "_क": 758,
      "op": 759,
      "▁H": 760,
      "ற்றும்": 761,
      "▁है": 762,
      "சிறப்பு": 763,
      "▁re": 764,
      "▁[\"": 765,
      "று": 766,
      "29": 767,
      "ంగ": 768,
      "து.": 769,
      "rom": 770,
      "▁N": 771,
      "ன்னாட்டுத்": 772,
      "18": 773,
      "]](https://en.wikipedia.org/wiki/India": 774,
      "](https://en.wikipedia.org/wiki/India#cite_ref-": 775,
      "]](https://en.wikipedia.org/wiki/India#cite_note-": 776,
      "▁స": 777,
      "ateg": 778,
      "▁द": 779,
      "mon": 780,
      "▁20": 781,
      "gle": 782,
      "▁మ": 783,
      "ategory": 784,
      "15": 785,
      "▁மற்றும்": 786,
      "archive": 787,
      "oogle": 788,
      "त्र": 789,
      "▁இந்தியா": 790,
      "angu": 791,
      "ary": 792,
      "ategory:": 793,
      "\"](https://": 794,
      "Metcalf": 795,
      "ார": 796,
      "_in": 797,
      "?id": 798,
      "ion": 799,
      "▁on": 800,
      "▁\"ப": 801,
      "▁19": 802,
      "राज": 803,
      "வு": 804,
      "a_": 805,
      "ेश": 806,
      "books.g": 807,
      "books.google": 808,
      "न्": 809,
      "▁ஒ": 810,
      "சிறப்பு:BookSources/978": 811,
      "oun": 812,
      "books?id": 813,
      ".com/books?id": 814,
      "books.google.com/books?id": 815,
      "40": 816,
      "िया": 817,
      "se": 818,
      "్రా": 819,
      "Uni": 820,
      "ap": 821,
      "▁l": 822,
      "16": 823,
      "books.google.com/books?id=": 824,
      "for": 825,
      "]](https://ta.wikipedia.org/wiki/இந்தியா#cite_note-FOOTNOTE": 826,
      "go": 827,
      "tu": 828,
      "17": 829,
      "27": 830,
      "ational": 831,
      "ட்": 832,
      "ற்க": 833,
      "ress": 834,
      "ub": 835,
      "ీయ": 836,
      "ry": 837,
      "और": 838,
      "archive.org/": 839,
      "ரா": 840,
      "The": 841,
      "▁.": 842,
      "▁h": 843,
      "ండ": 844,
      "▁ब": 845,
      "13": 846,
      "ंग": 847,
      "](https://ta.wikipedia.org/wiki/இந்தியா#CITEREF": 848,
      "14": 849,
      "▁[ISBN": 850,
      "ts": 851,
      ".jpg": 852,
      "▁भारत": 853,
      "▁की": 854,
      "-9": 855,
      "▁[978": 856,
      ".in": 857,
      "_in_": 858,
      "▁மு": 859,
      "▁[*": 860,
      "with": 861,
      "el": 862,
      "▁प्र": 863,
      "AA": 864,
      "ला": 865,
      "ng": 866,
      "▁त": 867,
      "ak": 868,
      "▁\"S": 869,
      "भा": 870,
      "्व": 871,
      "▁or": 872,
      "web.": 873,
      "జ్య": 874,
      "orld": 875,
      "▁F": 876,
      "tri": 877,
      "▁न": 878,
      "▁చ": 879,
      "ab": 880,
      "web/": 881,
      "archive.org/web/": 882,
      "web.archive.org/web/": 883,
      "▁से": 884,
      "ish": 885,
      "ரி": 886,
      "▁•": 887,
      "ால": 888,
      "வின்": 889,
      "ப்பட்ட": 890,
      "umb": 891,
      "வில்": 892,
      "తా": 893,
      "▁from": 894,
      "▁और": 895,
      "ము": 896,
      "த்து": 897,
      "నా": 898,
      "▁India\")": 899,
      "*](https://": 900,
      "_S": 901,
      "ந்து": 902,
      "తి": 903,
      "్ట": 904,
      "▁./": 905,
      "ge": 906,
      "▁का": 907,
      "▁th": 908,
      "_P": 909,
      "--": 910,
      "_स": 911,
      "ானது": 912,
      "pecial": 913,
      "http://": 914,
      "im": 915,
      "సి": 916,
      "eved": 917,
      "px": 918,
      "வா": 919,
      "ep": 920,
      "త్": 921,
      "70": 922,
      "्रे": 923,
      "common": 924,
      "▁O": 925,
      "ता": 926,
      "medi": 927,
      "ain": 928,
      "्ट": 929,
      "outh": 930,
      "av": 931,
      "_A": 932,
      "ிற": 933,
      "anguage": 934,
      "-5": 935,
      "load": 936,
      "▁[↑](https://en.wikipedia.org/wiki/India#cite_ref-": 937,
      "▁---": 938,
      "ண்டு": 939,
      "வை": 940,
      "▁n": 941,
      ".wiki": 942,
      "upload": 943,
      "\").": 944,
      "-2": 945,
      ".wikimedi": 946,
      "▁[S": 947,
      "versi": 948,
      "▁(సా.శ.": 949,
      "pedia/": 950,
      "a.org/wikipedia/": 951,
      "upload.wikimedi": 952,
      "upload.wikimedia.org/wikipedia/": 953,
      "Har": 954,
      "inal": 955,
      "▁கு": 956,
      "▁L": 957,
      "](https://upload.wikimedia.org/wikipedia/": 958,
      "commons/": 959,
      "![": 960,
      "యా": 961,
      "ங்கள": 962,
      "har": 963,
      "▁ப.": 964,
      "▁தொடர்": 965,
      "](https://upload.wikimedia.org/wikipedia/commons/": 966,
      "thumb": 967,
      ")[[": 968,
      "ులు": 969,
      "▁రా": 970,
      "PA": 971,
      "thumb/": 972,
      "do": 973,
      "▁\"भारत": 974,
      "–సా.శ.": 975,
      "ஸ்": 976,
      "▁అ": 977,
      "](https://upload.wikimedia.org/wikipedia/commons/thumb/": 978,
      "▁for": 979,
      "px-": 980,
      "&pg": 981,
      "&pg=": 982,
      "டை": 983,
      "ి.": 984,
      "கா": 985,
      "\")*": 986,
      "ம்ப": 987,
      "versity": 988,
      "2011": 989,
      "स्त": 990,
      "35": 991,
      "▁W": 992,
      "▁व": 993,
      "▁*[": 994,
      "ct": 995,
      "▁பெ": 996,
      "राज्य": 997,
      "ாடு": 998,
      "▁ప్ర": 999,
      "क्ष": 1000,
      "றை": 1001,
      "▁எண்": 1002,
      "ht": 1003,
      "ित": 1004,
      "ిక": 1005,
      "est": 1006,
      "ன்ற": 1007,
      "▁[↑](https://ta.wikipedia.org/wiki/இந்தியா#cite_ref-FOOTNOTE": 1008,
      "a-": 1009,
      "▁In": 1010,
      "47": 1011,
      "36": 1012,
      "తం": 1013,
      "न्द": 1014,
      "▁t": 1015,
      "##": 1016,
      "bo": 1017,
      "les": 1018,
      "லா": 1019,
      "48": 1020,
      "ma": 1021,
      "_C": 1022,
      "▁பொ": 1023,
      "web.archive.org/web/201": 1024,
      "conom": 1025,
      "ிரு": 1026,
      "கம்": 1027,
      "வி": 1028,
      "ిన": 1029,
      "జ్యం": 1030,
      "ther": 1031,
      "&pg=PA": 1032,
      "▁आ": 1033,
      "ons": 1034,
      "err": 1035,
      "2006": 1036,
      "து.[[": 1037,
      "%2": 1038,
      "ast": 1039,
      "ens": 1040,
      "mpl": 1041,
      "षा": 1042,
      "pecial:BookSources/978": 1043,
      "38": 1044,
      "ted": 1045,
      "*](https://books.google.com/books?id=": 1046,
      "_and": 1047,
      "▁p.": 1048,
      "2.": 1049,
      "पु": 1050,
      "▁ஒரு": 1051,
      "▁orig": 1052,
      "▁by": 1053,
      "జా": 1054,
      "ति": 1055,
      "tein": 1056,
      "ிரி": 1057,
      "ணி": 1058,
      "▁K": 1059,
      "ास": 1060,
      "▁உள்ள": 1061,
      "▁&": 1062,
      "ages": 1063,
      "india.": 1064,
      "ంచ": 1065,
      "కు": 1066,
      "▁2011": 1067,
      "ேர": 1068,
      "tim": 1069,
      "error": 1070,
      "rit": 1071,
      "%20": 1072,
      "எண்": 1073,
      "▁original": 1074,
      "லி": 1075,
      "](https://te.wikipedia.org/wiki/భారతదేశం": 1076,
      "▁தர": 1077,
      "▁is": 1078,
      "▁be": 1079,
      "ாள": 1080,
      "'s": 1081,
      "ow": 1082,
      "University": 1083,
      "ను": 1084,
      "పూ": 1085,
      ".in/": 1086,
      "▁d": 1087,
      "/https://": 1088,
      "▁Indian": 1089,
      "artic": 1090,
      "ப்பட": 1091,
      "46": 1092,
      "భా": 1093,
      "ம்\")": 1094,
      "ort": 1095,
      "-7": 1096,
      "ொழ": 1097,
      "▁([": 1098,
      "pg/": 1099,
      "स्": 1100,
      "ரசு": 1101,
      "sia": 1102,
      "-6": 1103,
      ".p": 1104,
      "mber": 1105,
      "ప్ర": 1106,
      "▁கொ": 1107,
      "_D": 1108,
      "▁வி": 1109,
      "39": 1110,
      "indu": 1111,
      "aj": 1112,
      "ద్": 1113,
      "ింద": 1114,
      "49": 1115,
      "லக": 1116,
      "_தொடர்": 1117,
      "45": 1118,
      "▁[A": 1119,
      "▁\"இந்திய": 1120,
      "▁Category:": 1121,
      "und": 1122,
      "art": 1123,
      "▁(identifier)": 1124,
      "_(identifier)": 1125,
      "▁(identifier)\")": 1126,
      "](https://ta.wikipedia.org/wiki/இந்திய": 1127,
      "ப்_ப": 1128,
      "_of_India": 1129,
      "2018": 1130,
      "ான்": 1131,
      "▁ఉ": 1132,
      "List": 1133,
      "ence": 1134,
      "भाषा": 1135,
      "ం:": 1136,
      "▁போ": 1137,
      "fn": 1138,
      "ates": 1139,
      "opul": 1140,
      "ru": 1141,
      "](https://en.wikipedia.org/wiki/India#CITEREF": 1142,
      "_எண்": 1143,
      "son": 1144,
      "मा": 1145,
      "▁को": 1146,
      "_தர": 1147,
      "▁g": 1148,
      "ear": 1149,
      "था": 1150,
      "▁ఆ": 1151,
      "ியல்": 1152,
      "▁The": 1153,
      "]](https://hi.wikipedia.org/wiki/भारत": 1154,
      "▁[ப": 1155,
      "](https://hi.wikipedia.org/wiki/भारत#cite_ref-": 1156,
      "](https://ta.wikipedia.org/wiki/பன்னாட்டுத்": 1157,
      "▁\"பன்னாட்டுத்": 1158,
      "]](https://hi.wikipedia.org/wiki/भारत#cite_note-": 1159,
      "](https://ta.wikipedia.org/wiki/பன்னாட்டுத்_தர": 1160,
      "णी": 1161,
      "gion": 1162,
      "री": 1163,
      "▁எண்\")": 1164,
      "_தொடர்_எண்": 1165,
      "](https://ta.wikipedia.org/wiki/பன்னாட்டுத்_தர_தொடர்_எண்": 1166,
      "1.": 1167,
      "_T": 1168,
      "ல்க": 1169,
      "▁இரு": 1170,
      "ची": 1171,
      "arg": 1172,
      "देश": 1173,
      "▁ర": 1174,
      "ensus": 1175,
      "ர்க": 1176,
      "▁ग": 1177,
      "ற்ப": 1178,
      "60": 1179,
      "2009": 1180,
      "37": 1181,
      "ingh": 1182,
      "lic": 1183,
      "1998": 1184,
      "etri": 1185,
      "ड़": 1186,
      "మా": 1187,
      "▁సా": 1188,
      "▁\"சிறப்பு:BookSources/978": 1189,
      "](https://ta.wikipedia.org/wiki/சிறப்பு:BookSources/978": 1190,
      "భారతీయ": 1191,
      "gov": 1192,
      "▁இது": 1193,
      "▁[ISBN](https://ta.wikipedia.org/wiki/பன்னாட்டுத்_தர_தொடர்_எண்": 1194,
      "_ம": 1195,
      "వా": 1196,
      "▁पर": 1197,
      "ong": 1198,
      "▁उ": 1199,
      "BA": 1200,
      "రు": 1201,
      "▁Retri": 1202,
      "%2C": 1203,
      "▁Retrieved": 1204,
      "s,": 1205,
      "▁ए": 1206,
      "tern": 1207,
      "ud": 1208,
      "2010": 1209,
      "ष्ट": 1210,
      "ाद": 1211,
      "ார்": 1212,
      "▁है।": 1213,
      "QBA": 1214,
      "]](https://en.wikipedia.org/wiki/India#cite_note-FOOTNOTE": 1215,
      "QBAJ": 1216,
      "ற்கு": 1217,
      "](http://": 1218,
      "led": 1219,
      "వి": 1220,
      "ష్ట": 1221,
      "▁[C": 1222,
      "ార్": 1223,
      "sher": 1224,
      "పూ.": 1225,
      "log": 1226,
      ".jpg)": 1227,
      "ha": 1228,
      "▁\"C": 1229,
      "ance": 1230,
      "ut": 1231,
      "▁श": 1232,
      "క్ష": 1233,
      "_के": 1234,
      "opulation": 1235,
      "p.": 1236,
      "▁இந்திய": 1237,
      "all": 1238,
      "ரிய": 1239,
      "స్థ": 1240,
      ".jpg/": 1241,
      "రిత్ర": 1242,
      "_in_India": 1243,
      "▁de": 1244,
      "க்கிய": 1245,
      "ans": 1246,
      "ையில்": 1247,
      "▁[म": 1248,
      "▁பு": 1249,
      "्रेणी": 1250,
      "Harv": 1251,
      "od": 1252,
      "AAQBAJ": 1253,
      "_म": 1254,
      "gh": 1255,
      "errors": 1256,
      "श्रेणी": 1257,
      "லைக்க": 1258,
      "ष्ट्र": 1259,
      "7.": 1260,
      "ib": 1261,
      "os": 1262,
      "ff": 1263,
      "▁Press": 1264,
      "ய்": 1265,
      "న్న": 1266,
      "over": 1267,
      "4.": 1268,
      "Stein": 1269,
      "का": 1270,
      "▁सं": 1271,
      "विश": 1272,
      "श्रेणी:": 1273,
      "ke": 1274,
      "▁[M": 1275,
      "3.": 1276,
      "ore": 1277,
      "ll": 1278,
      ",_": 1279,
      "▁as": 1280,
      "ले": 1281,
      "▁பா": 1282,
      "vi": 1283,
      "ने": 1284,
      "▁\"ம": 1285,
      "new": 1286,
      "Category:": 1287,
      "-0-19": 1288,
      "ations": 1289,
      "MetcalfMetcalf": 1290,
      "ेत्र": 1291,
      "ங்கள்": 1292,
      "▁I": 1293,
      "80": 1294,
      ").\n": 1295,
      "5.": 1296,
      "rchi": 1297,
      "प्र": 1298,
      "म्": 1299,
      "திய": 1300,
      "Ro": 1301,
      "df": 1302,
      "▁pp.": 1303,
      "िल": 1304,
      "டிய": 1305,
      "end": 1306,
      "templ": 1307,
      "a](https://en.wikipedia.org/wiki/": 1308,
      "சா": 1309,
      "▁[![": 1310,
      "_M": 1311,
      "9.": 1312,
      "land": 1313,
      "గా": 1314,
      "als": 1315,
      "_ந": 1316,
      "per": 1317,
      "▁De": 1318,
      "nic": 1319,
      "ంట": 1320,
      "కి": 1321,
      "-10": 1322,
      "_के_": 1323,
      "56": 1324,
      "▁st": 1325,
      "▁[2": 1326,
      "90": 1327,
      "தே": 1328,
      "▁इ": 1329,
      "▁\"ISBN": 1330,
      "ISBN_(identifier)": 1331,
      "ame": 1332,
      "PD": 1333,
      "மி": 1334,
      "మ్రా": 1335,
      "्या": 1336,
      "திப்ப": 1337,
      "ష్ట్ర": 1338,
      "-p": 1339,
      "2004": 1340,
      "2007": 1341,
      "250": 1342,
      "ction": 1343,
      "िय": 1344,
      "stan": 1345,
      "▁சம": 1346,
      "▁ஆக": 1347,
      "htm": 1348,
      "ంత": 1349,
      "த்தின்": 1350,
      "ity": 1351,
      "77": 1352,
      "हि": 1353,
      "ी](https://hi.wikipedia.org/wiki/": 1354,
      "▁[1": 1355,
      "al_": 1356,
      "▁[B": 1357,
      "▁\"M": 1358,
      "2008": 1359,
      "ज़": 1360,
      "ால்": 1361,
      "](https://ta.wikipedia.org/wiki/ம": 1362,
      "ated": 1363,
      "-1)": 1364,
      "▁V": 1365,
      "au": 1366,
      "umm": 1367,
      "34": 1368,
      "bot": 1369,
      "పు": 1370,
      "▁[↑](https://hi.wikipedia.org/wiki/भारत#cite_ref-": 1371,
      "ai": 1372,
      "ust": 1373,
      "India.": 1374,
      "lish": 1375,
      "1)": 1376,
      "सं": 1377,
      "सा": 1378,
      "s.": 1379,
      "▁no": 1380,
      "times": 1381,
      "*.": 1382,
      "ue": 1383,
      "ank": 1384,
      "▁న": 1385,
      "▁\"B": 1386,
      "▁பிர": 1387,
      "களின்": 1388,
      "▁[ம": 1389,
      "▁with": 1390,
      "og": 1391,
      "albot": 1392,
      "rchived": 1393,
      "त्त": 1394,
      "మి": 1395,
      "ాన": 1396,
      "▁र": 1397,
      "hin": 1398,
      "▁நி": 1399,
      "titu": 1400,
      "ard": 1401,
      "AAQBAJ&pg=PA": 1402,
      "33": 1403,
      "6.": 1404,
      "_1": 1405,
      "_அ": 1406,
      "పా": 1407,
      "▁ఇ": 1408,
      "▁త": 1409,
      "భాష": 1410,
      "df)": 1411,
      "▁di": 1412,
      "ொழி": 1413,
      "\\_with": 1414,
      "றி": 1415,
      "ali": 1416,
      "istory": 1417,
      "PDF": 1418,
      "\\_with\\_": 1419,
      "கை": 1420,
      "கப்": 1421,
      "த்தில்": 1422,
      "▁அமை": 1423,
      "ட்சி": 1424,
      "▁(PDF": 1425,
      "MetcalfMetcalf2006": 1426,
      "_N": 1427,
      "em": 1428,
      "పాల": 1429,
      "లీ": 1430,
      "▁University": 1431,
      "▁செ": 1432,
      "_p": 1433,
      "_க": 1434,
      "out": 1435,
      "र्व": 1436,
      "ंड": 1437,
      "ஞ்": 1438,
      "▁దేశ": 1439,
      "த்திய": 1440,
      "స్తా": 1441,
      "ல்கலைக்க": 1442,
      "ல்கலைக்கழ": 1443,
      "Asher": 1444,
      "s-": 1445,
      "▁5": 1446,
      "▁\"த": 1447,
      "க்கி": 1448,
      "திப்பகம்": 1449,
      "\"))": 1450,
      "](https://en.wikipedia.org/wiki/S": 1451,
      "िस": 1452,
      "கிற": 1453,
      "மான": 1454,
      "వర్": 1455,
      "ాయ": 1456,
      "▁–": 1457,
      "](S": 1458,
      "▁\"A": 1459,
      "_B": 1460,
      "nment": 1461,
      "world": 1462,
      "राष्ट्र": 1463,
      "conomic": 1464,
      "_R": 1465,
      "ani": 1466,
      "▁it": 1467,
      "▁[the": 1468,
      "cl": 1469,
      "\"](https://web.archive.org/web/201": 1470,
      "ture": 1471,
      "india.gov": 1472,
      "_G": 1473,
      "language": 1474,
      "ஆம்": 1475,
      "மாக": 1476,
      "▁ल": 1477,
      "த்தி": 1478,
      "oli": 1479,
      "ati": 1480,
      "ven": 1481,
      "ன.": 1482,
      "ori": 1483,
      "▁[P": 1484,
      "▁[த": 1485,
      "](https://ta.wikipedia.org/wiki/த": 1486,
      "000": 1487,
      "ச்சி": 1488,
      "మ్రాజ్యం": 1489,
      "▁[↑](https://en.wikipedia.org/wiki/India#cite_ref-FOOTNOTE": 1490,
      "▁\"க": 1491,
      "ash": 1492,
      "▁सा": 1493,
      "குப்பு": 1494,
      "्षेत्र": 1495,
      "coun": 1496,
      "దేశ్": 1497,
      "-0-5": 1498,
      "ers": 1499,
      "▁Asia": 1500,
      "cont": 1501,
      "चि": 1502,
      "வன": 1503,
      "▁\"P": 1504,
      "குப்பு:": 1505,
      "▁3": 1506,
      "india-": 1507,
      "▁are": 1508,
      ".pdf)": 1509,
      "cy": 1510,
      "ari": 1511,
      "8.": 1512,
      "मन": 1513,
      "ी_": 1514,
      "ం](https://te.wikipedia.org/wiki/": 1515,
      "▁राज्य": 1516,
      "▁\"இந்தியா": 1517,
      "ட்டி": 1518,
      "/https://www.": 1519,
      "ec": 1520,
      "ark": 1521,
      "lop": 1522,
      "पा": 1523,
      "்ட்": 1524,
      "श्रेणी:Harv": 1525,
      "_b": 1526,
      "uly": 1527,
      "12": 1528,
      "▁4": 1529,
      "जा": 1530,
      "ைக்": 1531,
      "ంబ": 1532,
      "టి": 1533,
      "▁[க": 1534,
      "▁\"म": 1535,
      "ப்படு": 1536,
      "ism": 1537,
      "ath": 1538,
      "man": 1539,
      "னி": 1540,
      "ுள்ள": 1541,
      "▁भाषा": 1542,
      "▁இந்தியாவின்": 1543,
      "](https://en.wikipedia.org/wiki/C": 1544,
      "ah": 1545,
      "வாக": 1546,
      "ாட": 1547,
      "ோர": 1548,
      "ంలో": 1549,
      "ட்டியல்": 1550,
      "10.": 1551,
      "▁हैं": 1552,
      "▁that": 1553,
      "స్తాన్": 1554,
      "பகுப்பு:": 1555,
      "▁य": 1556,
      "▁वि": 1557,
      "▁./பகுப்பு:": 1558,
      "Stein1998": 1559,
      "Dw": 1560,
      "](https://en.wikipedia.org/wiki/ISBN_(identifier)": 1561,
      "▁[ISBN](https://en.wikipedia.org/wiki/ISBN_(identifier)": 1562,
      "ex": 1563,
      "_s": 1564,
      "னர்": 1565,
      "గు": 1566,
      "డు": 1567,
      "నే": 1568,
      "్చ": 1569,
      "▁भ": 1570,
      "ine": 1571,
      "▁\"Special:BookSources/978": 1572,
      "](Special:BookSources/978": 1573,
      "0.": 1574,
      "ss": 1575,
      "eral": 1576,
      "riti": 1577,
      "தன்": 1578,
      "னை": 1579,
      "▁199": 1580,
      "a\")": 1581,
      "▁7": 1582,
      "▁an": 1583,
      "ublic": 1584,
      "mer": 1585,
      "ूची": 1586,
      "మూ": 1587,
      "](https://ta.wikipedia.org/wiki/க": 1588,
      "్రీ": 1589,
      "ும்.": 1590,
      "▁18": 1591,
      "▁ex": 1592,
      "జాత": 1593,
      "ern": 1594,
      "2014": 1595,
      "](https://en.wikipedia.org/wiki/M": 1596,
      "aki": 1597,
      "गर": 1598,
      "மம்": 1599,
      "ல்ல": 1600,
      "](https://ta.wikipedia.org/wiki/இந்தியா#cite_ref-FOOTNOTE": 1601,
      "ik": 1602,
      "▁was": 1603,
      "nd": 1604,
      "tics": 1605,
      ")\")": 1606,
      "59": 1607,
      "67": 1608,
      "లా": 1609,
      "▁\"ச": 1610,
      "▁கா": 1611,
      "ంగా": 1612,
      "rad": 1613,
      "ove": 1614,
      "▁\"T": 1615,
      "▁மா": 1616,
      "ற்று": 1617,
      "\"\n": 1618,
      "44": 1619,
      "డ్": 1620,
      "ిల్": 1621,
      "▁జ": 1622,
      "▁ஆண்டு": 1623,
      "/http://": 1624,
      "3)": 1625,
      "▁[D": 1626,
      "▁language": 1627,
      "Singh": 1628,
      "ेला": 1629,
      "ளி": 1630,
      "▁து": 1631,
      "▁வெ": 1632,
      "▁retri": 1633,
      "250px-": 1634,
      "▁retrieved": 1635,
      "dit": 1636,
      "sion": 1637,
      "sian": 1638,
      "\"](https://www.": 1639,
      "udd": 1640,
      "CS": 1641,
      "हा": 1642,
      "లి": 1643,
      "స్త్ర": 1644,
      "arget": 1645,
      "ult": 1646,
      "-m": 1647,
      "ழ்": 1648,
      "ன்று": 1649,
      "ட்டு": 1650,
      "▁கால": 1651,
      "▁Com": 1652,
      "ange": 1653,
      "சியா": 1654,
      "120": 1655,
      "_m": 1656,
      "ck": 1657,
      "rid": 1658,
      "html": 1659,
      "shi": 1660,
      "कार": 1661,
      "पर": 1662,
      "விய": 1663,
      "ం\")": 1664,
      "కా": 1665,
      "ణా": 1666,
      "దక్ష": 1667,
      "ధిక": 1668,
      "▁कर": 1669,
      "▁ప్రా": 1670,
      "-81": 1671,
      "▁వి": 1672,
      "ंग्रे": 1673,
      "సియా": 1674,
      "జాతీయ": 1675,
      "69": 1676,
      "velop": 1677,
      "india": 1678,
      "vis": 1679,
      "क्त": 1680,
      "िर": 1681,
      "ोल": 1682,
      "ணை": 1683,
      "tries": 1684,
      "4)": 1685,
      "ford": 1686,
      "ord": 1687,
      "try": 1688,
      "कि": 1689,
      "मी": 1690,
      "மைய": 1691,
      "ess": 1692,
      "▁பகு": 1693,
      "▁సం": 1694,
      "▁చరిత్ర": 1695,
      "2005": 1696,
      "_ஆ": 1697,
      "mb": 1698,
      "நில": 1699,
      "▁அர": 1700,
      "▁2014": 1701,
      "டிமம்": 1702,
      "டிமம்:": 1703,
      "/artic": 1704,
      "in-": 1705,
      "eng": 1706,
      "iki": 1707,
      "par": 1708,
      "▁July": 1709,
      "ummit": 1710,
      ".;": 1711,
      "2)": 1712,
      "ef": 1713,
      "డి": 1714,
      "▁\"D": 1715,
      "▁வே": 1716,
      "ச்ச": 1717,
      "हिन्द": 1718,
      "57": 1719,
      "_E": 1720,
      "onstitu": 1721,
      "..": 1722,
      "news/": 1723,
      "PP": 1724,
      "census": 1725,
      "ंध": 1726,
      "ेष": 1727,
      "வெ": 1728,
      "▁\"E": 1729,
      "](https://ta.wikipedia.org/wiki/ச": 1730,
      "](https://hi.wikipedia.org/wiki/म": 1731,
      "க்கப்பட்ட": 1732,
      "▁con": 1733,
      "](https://ta.wikipedia.org/wiki/படிமம்:": 1734,
      "Singh2009": 1735,
      "ile": 1736,
      "](https://www.": 1737,
      "![](https://upload.wikimedia.org/wikipedia/commons/thumb/": 1738,
      "National": 1739,
      "sv": 1740,
      "ी\")": 1741,
      "ంధ": 1742,
      "▁மி": 1743,
      "▁நில": 1744,
      "స్త": 1745,
      "ाना": 1746,
      "▁अन": 1747,
      "▁రాజ్యం": 1748,
      "▁సామ్రాజ్యం": 1749,
      "వర్గ": 1750,
      "దక్షి": 1751,
      "0%": 1752,
      "▁\"List": 1753,
      "▁whi": 1754,
      "▁2021": 1755,
      "▁[978-1": 1756,
      "List_of_": 1757,
      "ate_": 1758,
      "pri": 1759,
      "sp": 1760,
      "ritish": 1761,
      "51": 1762,
      "द्": 1763,
      "से": 1764,
      "இல்": 1765,
      "டைய": 1766,
      "▁இந்த": 1767,
      "▁[ச": 1768,
      "esh": 1769,
      "▁क्षेत्र": 1770,
      "qu": 1771,
      "▁8": 1772,
      "](https://en.wikipedia.org/wiki/B": 1773,
      "68": 1774,
      "mund": 1775,
      "thermund": 1776,
      "a,": 1777,
      "மெ": 1778,
      "దీ": 1779,
      "ர்\")": 1780,
      "2003": 1781,
      "amb": 1782,
      "▁2010": 1783,
      "▁சு": 1784,
      "र्म": 1785,
      "anguages": 1786,
      "ండి": 1787,
      "వర్గం:": 1788,
      "ost": 1789,
      "india/": 1790,
      "ho": 1791,
      "pril": 1792,
      "gen": 1793,
      "xford": 1794,
      "धान": 1795,
      "वा": 1796,
      "ोत": 1797,
      "தார": 1798,
      "ing\\_": 1799,
      "ரிக்க": 1800,
      "58": 1801,
      "co": 1802,
      "oh": 1803,
      "yson": 1804,
      "ass": 1805,
      "rap": 1806,
      "ficial": 1807,
      "_F": 1808,
      "भि": 1809,
      "श्": 1810,
      "பு": 1811,
      "తర": 1812,
      "ది": 1813,
      "వం": 1814,
      "▁బ": 1815,
      "க்கள்": 1816,
      "ach": 1817,
      "धार": 1818,
      "ृत": 1819,
      "மு": 1820,
      "ding": 1821,
      "▁\"அ": 1822,
      "▁ने": 1823,
      "Talbot": 1824,
      "ov": 1825,
      "rou": 1826,
      "▁\"G": 1827,
      "](https://en.wikipedia.org/wiki/P": 1828,
      "ulke": 1829,
      "AsherTalbot": 1830,
      "Ar": 1831,
      "cto": 1832,
      "ట్": 1833,
      "ిత": 1834,
      "्रा": 1835,
      "▁மே": 1836,
      "திக": 1837,
      "United": 1838,
      "▁Octo": 1839,
      "▁பொரு": 1840,
      "logy": 1841,
      "▁October": 1842,
      "fe": 1843,
      "▁[G": 1844,
      "ms": 1845,
      "போர": 1846,
      "ளா": 1847,
      "row": 1848,
      "களில்": 1849,
      "doi": 1850,
      "विशेष": 1851,
      "▁2": 1852,
      "Kulke": 1853,
      "▁we": 1854,
      "_చ": 1855,
      "के": 1856,
      "உலக": 1857,
      "▁சி": 1858,
      "▁\"మ": 1859,
      "ase": 1860,
      "▁கோ": 1861,
      "▁தொ": 1862,
      "ింది.": 1863,
      "लेख": 1864,
      "ot": 1865,
      "▁li": 1866,
      "ire": 1867,
      "ten": 1868,
      "ood": 1869,
      "ack": 1870,
      "▁17": 1871,
      "▁Re": 1872,
      "aw": 1873,
      "ன.[[": 1874,
      "ரை": 1875,
      "▁[अ": 1876,
      "▁\"The": 1877,
      "\").\n": 1878,
      "▁மூ": 1879,
      "ங்கு": 1880,
      "une": 1881,
      "▁கொண்டு": 1882,
      "▁இருந்த": 1883,
      "ledge": 1884,
      "6)": 1885,
      "43": 1886,
      "inist": 1887,
      "velopment": 1888,
      "▁which": 1889,
      "62": 1890,
      "▁U": 1891,
      "▁१": 1892,
      "▁ఎ": 1893,
      "▁[మ": 1894,
      "த்தான": 1895,
      "▁உலக": 1896,
      "ीय_": 1897,
      "▁(సా.శ.పూ.": 1898,
      "▁[R": 1899,
      "▁\"R": 1900,
      "ome": 1901,
      "conomy": 1902,
      "▁r": 1903,
      "-s": 1904,
      "5)": 1905,
      "Com": 1906,
      "jpg": 1907,
      "ug": 1908,
      "ंद": 1909,
      "ंत्र": 1910,
      "ूल": 1911,
      "ेल": 1912,
      "▁\"अ": 1913,
      "▁பதிப்பகம்": 1914,
      "க்ஸ்": 1915,
      "▁ति": 1916,
      "▁एक": 1917,
      "me": 1918,
      "▁o": 1919,
      "arch": 1920,
      "hy": 1921,
      "▁[E": 1922,
      "ties": 1923,
      "ous": 1924,
      "ligion": 1925,
      "வே": 1926,
      "ధ్య": 1927,
      "▁గ": 1928,
      "▁శ": 1929,
      "▁[இந்திய": 1930,
      "▁[भारत": 1931,
      "](https://ta.wikipedia.org/wiki/அ": 1932,
      "▁பல்கலைக்கழ": 1933,
      "lig": 1934,
      "ின்ற": 1935,
      "▁அதிக": 1936,
      "▁पु": 1937,
      "ంద్ర": 1938,
      "विशेष:": 1939,
      "RI": 1940,
      "▁South": 1941,
      "DP": 1942,
      "▁History": 1943,
      "%2C_": 1944,
      "ोग": 1945,
      "பா": 1946,
      "ைப்": 1947,
      "C&pg=PA": 1948,
      "uc": 1949,
      "ree": 1950,
      "vision": 1951,
      "hist": 1952,
      "िण": 1953,
      "கி": 1954,
      "ైన": 1955,
      "](https://te.wikipedia.org/wiki/మ": 1956,
      "▁மொழி": 1957,
      "▁పే": 1958,
      "▁உரு": 1959,
      "स्तान": 1960,
      "IN": 1961,
      "▁India's": 1962,
      "val": 1963,
      "ஒக்ஸ்": 1964,
      "மானது": 1965,
      "ியா": 1966,
      ".jpg)\n": 1967,
      "ர்கள்": 1968,
      "-0-521": 1969,
      "போர்ட்": 1970,
      "ஒக்ஸ்போர்ட்": 1971,
      "▁com": 1972,
      "▁2007": 1973,
      "05": 1974,
      "1_": 1975,
      "age/": 1976,
      "_ச": 1977,
      "national": 1978,
      "ట్ట": 1979,
      "హింద": 1980,
      "▁భారతదేశం": 1981,
      "▁நீ": 1982,
      "ంగ్": 1983,
      "ద్ధ": 1984,
      "outledge": 1985,
      "▁பல்கலைக்கழகப்": 1986,
      "[![](https://upload.wikimedia.org/wikipedia/commons/thumb/": 1987,
      "mis": 1988,
      "elhi": 1989,
      "65": 1990,
      "air": 1991,
      "ीप": 1992,
      "்கள்": 1993,
      "ும்,": 1994,
      "harma": 1995,
      "pr": 1996,
      "▁[T": 1997,
      "ames": 1998,
      "▁(201": 1999,
      "\")*.": 2000,
      "98": 2001,
      "ించ": 2002,
      "▁ఒ": 2003,
      "▁భాష": 2004,
      "▁[క": 2005,
      "▁\"स": 2006,
      "ాల్": 2007,
      "illi": 2008,
      "▁has": 2009,
      "▁प्रदेश": 2010,
      "isher": 2011,
      "▁பெரு": 2012,
      "क्षिण": 2013,
      "akistan": 2014,
      "7)": 2015,
      "▁ter": 2016,
      "ed.": 2017,
      "330": 2018,
      "▁pro": 2019,
      "\")*,": 2020,
      "Pages": 2021,
      "गमन": 2022,
      "थि": 2023,
      "ளர்": 2024,
      "▁ஊ": 2025,
      "▁ஓ": 2026,
      "▁[स": 2027,
      "▁[அ": 2028,
      "ிரை": 2029,
      "ள்ளது.": 2030,
      "▁Hindu": 2031,
      "ublish": 2032,
      "வார்": 2033,
      "▁ஆகிய": 2034,
      "மெரிக்க": 2035,
      "/S": 2036,
      "▁se": 2037,
      "ternational": 2038,
      "-b": 2039,
      "ail": 2040,
      "ters": 2041,
      "india.gov.in/": 2042,
      "DwAAQBAJ&pg=PA": 2043,
      "]](https://te.wikipedia.org/wiki/భారతదేశం": 2044,
      "_L": 2045,
      "द्य": 2046,
      "नी": 2047,
      "ी_स": 2048,
      "చ్చ": 2049,
      "జీ": 2050,
      "ేంద్ర": 2051,
      "▁26": 2052,
      "orth": 2053,
      "▁\"క": 2054,
      "▁St": 2055,
      "▁நட": 2056,
      "ிரா": 2057,
      "usin": 2058,
      ".gov": 2059,
      "ேரரசு": 2060,
      "](https://te.wikipedia.org/wiki/భారతదేశం#cite_ref-": 2061,
      "ர்கள": 2062,
      "nic.in/": 2063,
      "▁तिथि": 2064,
      "]](https://te.wikipedia.org/wiki/భారతదేశం#cite_note-": 2065,
      "bb": 2066,
      "▁Ch": 2067,
      "Pages\\_": 2068,
      "/978": 2069,
      "ys": 2070,
      "alth": 2071,
      "197": 2072,
      "▁its": 2073,
      "%28": 2074,
      "%29": 2075,
      "Wiki": 2076,
      "ure": 2077,
      "ँच": 2078,
      "यु": 2079,
      "ून": 2080,
      "on-": 2081,
      "mpire": 2082,
      "▁பொது": 2083,
      "தேச": 2084,
      "Te": 2085,
      "_the": 2086,
      "iv": 2087,
      "ran": 2088,
      "▁25": 2089,
      "asi": 2090,
      "▁10": 2091,
      "odern": 2092,
      "dep": 2093,
      "2_": 2094,
      "9)": 2095,
      "ne": 2096,
      "ீன": 2097,
      "త్య": 2098,
      "బ్": 2099,
      "మీ": 2100,
      "▁ख": 2101,
      "▁[இ": 2102,
      "tical": 2103,
      "his": 2104,
      "ன்ப": 2105,
      "](https://te.wikipedia.org/wiki/ద": 2106,
      "▁வா": 2107,
      "ata": 2108,
      "్యా": 2109,
      "▁நாடு": 2110,
      "hel": 2111,
      "రాష్ట్ర": 2112,
      "▁./వర్గం:": 2113,
      "▁तिथि:": 2114,
      "*,": 2115,
      "▁te": 2116,
      "World": 2117,
      "inent": 2118,
      "▁15": 2119,
      "▁[Archived": 2120,
      "▁[Archived](https://": 2121,
      "att": 2122,
      "மா": 2123,
      "](https://en.wikipedia.org/wiki/D": 2124,
      "துகா": 2125,
      "aper": 2126,
      "▁भारतीय": 2127,
      "###": 2128,
      "ansk": 2129,
      "ant": 2130,
      ".jpg/250px-": 2131,
      "any": 2132,
      "Rothermund": 2133,
      "जन": 2134,
      "ढ़": 2135,
      "धिक": 2136,
      "ంక": 2137,
      "ప్": 2138,
      "యు": 2139,
      "▁अभि": 2140,
      "▁देश": 2141,
      "తంత్ర": 2142,
      "▁\"இந்தியாவில்": 2143,
      "దక్షిణ": 2144,
      "▁अभिगमन": 2145,
      "-20": 2146,
      "](http://www.": 2147,
      "anskrit": 2148,
      "/0": 2149,
      "gan": 2150,
      "port": 2151,
      "धर्म": 2152,
      "ணு": 2153,
      "anu": 2154,
      "▁பர": 2155,
      "க்கும்": 2156,
      "्री": 2157,
      "्रोत": 2158,
      "▁தொட": 2159,
      "ace": 2160,
      "▁April": 2161,
      "▁உய": 2162,
      "▁2009": 2163,
      "▁जन": 2164,
      "▁तथा": 2165,
      "▁\"भारतीय": 2166,
      "1/": 2167,
      "eb": 2168,
      "](https://en.wikipedia.org/wiki/E": 2169,
      "198": 2170,
      "▁Aug": 2171,
      "ound": 2172,
      "▁August": 2173,
      "▁ch": 2174,
      "](https://books.google.com/books?id=": 2175,
      "_స": 2176,
      "ave": 2177,
      "ती": 2178,
      "त्": 2179,
      "बर": 2180,
      "தாக": 2181,
      "ுக்கு": 2182,
      "ூட்ட": 2183,
      "తము": 2184,
      "వే": 2185,
      "ష్": 2186,
      "ాన్": 2187,
      "▁च": 2188,
      "▁\"क": 2189,
      "entr": 2190,
      "▁An": 2191,
      "స్క": 2192,
      ".jpg)](https://ta.wikipedia.org/wiki/படிமம்:": 2193,
      "▁हैं।": 2194,
      "ిల్లీ": 2195,
      "_d": 2196,
      "ined": 2197,
      "berg": 2198,
      "▁[N": 2199,
      "ulture": 2200,
      "▁New": 2201,
      "ili": 2202,
      "हर": 2203,
      "ूर्व": 2204,
      "्ल": 2205,
      "வர": 2206,
      "ana": 2207,
      "](https://ta.wikipedia.org/wiki/இந்தியாவில்": 2208,
      "ater": 2209,
      "▁இட": 2210,
      "-in-": 2211,
      "Edit": 2212,
      "Page/": 2213,
      "▁sub": 2214,
      "▁2006": 2215,
      "ridge": 2216,
      "inistry": 2217,
      "EditPage/": 2218,
      "chw": 2219,
      "E0%": 2220,
      "वं": 2221,
      "ரோ": 2222,
      "வது": 2223,
      "జి": 2224,
      "ధాన": 2225,
      "బె": 2226,
      "](https://hi.wikipedia.org/wiki/क": 2227,
      "க்கா": 2228,
      "ారు": 2229,
      "▁தெ": 2230,
      "▁May": 2231,
      "▁కా": 2232,
      "▁రాజ": 2233,
      "स्तक": 2234,
      "ிருந்து": 2235,
      "पुस्तक": 2236,
      "continent": 2237,
      "AsherTalbot2008": 2238,
      "विशेष:पुस्तक": 2239,
      "्रोत/978": 2240,
      "100": 2241,
      "Hindu": 2242,
      "pp": 2243,
      "tember": 2244,
      "eri": 2245,
      "eptember": 2246,
      "les/": 2247,
      "मान": 2248,
      "ளைய": 2249,
      "ூர்": 2250,
      "ெடு": 2251,
      "िका": 2252,
      "டிப்பட": 2253,
      "▁जा": 2254,
      "earch": 2255,
      "राष्ट्रीय": 2256,
      "द्ध": 2257,
      "South": 2258,
      "▁at": 2259,
      "isation": 2260,
      "ign": 2261,
      "onstitution": 2262,
      "▁un": 2263,
      "2023": 2264,
      "gover": 2265,
      "_and_": 2266,
      "usi": 2267,
      "दी": 2268,
      "रकार": 2269,
      "हार": 2270,
      "ிழ": 2271,
      "దు": 2272,
      "మ్": 2273,
      "శ్": 2274,
      "▁24": 2275,
      "dition": 2276,
      "](https://hi.wikipedia.org/wiki/स": 2277,
      "](https://te.wikipedia.org/wiki/క": 2278,
      "్యవ": 2279,
      "ంది.": 2280,
      "पुर": 2281,
      "_చరిత్ర": 2282,
      "cat": 2283,
      "KulkeRothermund": 2284,
      "mission": 2285,
      "2-0)": 2286,
      "Fisher": 2287,
      "o-": 2288,
      "ind": 2289,
      "▁2018": 2290,
      "times.com/": 2291,
      "ொத்த": 2292,
      "▁राज": 2293,
      "▁[क": 2294,
      "▁\"N": 2295,
      "▁\"ब": 2296,
      "line": 2297,
      "▁coun": 2298,
      "1994": 2299,
      "▁World": 2300,
      "विश्व": 2301,
      "▁इस": 2302,
      "ograp": 2303,
      "_%28": 2304,
      "ram": 2305,
      "sland": 2306,
      "▁ri": 2307,
      "▁\"In": 2308,
      "](https://en.wikipedia.org/wiki/List_of_": 2309,
      "ament": 2310,
      "ashm": 2311,
      "roup": 2312,
      ",000": 2313,
      "4%": 2314,
      "_3": 2315,
      "▁[L": 2316,
      "template": 2317,
      "ambridge": 2318,
      "வர்": 2319,
      "ఢిల్లీ": 2320,
      "పంచ": 2321,
      "ric": 2322,
      "lection": 2323,
      "ారి": 2324,
      "amil": 2325,
      "ங்காள": 2326,
      "▁मेला": 2327,
      "ிரித்தான": 2328,
      "overnment": 2329,
      "మూస": 2330,
      "330px-": 2331,
      "zberg": 2332,
      "▁[K": 2333,
      "Harle": 2334,
      "ctor": 2335,
      "artzberg": 2336,
      "chwartzberg": 2337,
      "गु": 2338,
      "ம்](https://ta.wikipedia.org/wiki/": 2339,
      "க்கள": 2340,
      "2001": 2341,
      "▁स्": 2342,
      "▁இர": 2343,
      "▁Archived": 2344,
      "த்_த": 2345,
      "रालेख": 2346,
      "ticles": 2347,
      "▁சமய": 2348,
      "uro": 2349,
      "▁9": 2350,
      "▁21": 2351,
      "](https://en.wikipedia.org/wiki/A": 2352,
      "-26": 2353,
      "1–": 2354,
      "121": 2355,
      "_India": 2356,
      "oi": 2357,
      "erv": 2358,
      "▁September": 2359,
      "▁were": 2360,
      ".sv": 2361,
      "8/": 2362,
      "ा_": 2363,
      "िव": 2364,
      "கின்ற": 2365,
      "వు": 2366,
      "▁\"प": 2367,
      "▁\"భారతీయ": 2368,
      "்த்த": 2369,
      "▁பார": 2370,
      "▁தே": 2371,
      "ையாக": 2372,
      "▁हु": 2373,
      "_की_स": 2374,
      "▁वर्": 2375,
      "_में": 2376,
      "RICS": 2377,
      "ork": 2378,
      "ical": 2379,
      "raven": 2380,
      "imes": 2381,
      "Articles": 2382,
      "how": 2383,
      "por": 2384,
      "rary": 2385,
      "uk": 2386,
      "rec": 2387,
      "indiatimes.com/": 2388,
      "-t": 2389,
      "1-0)": 2390,
      "3-0)": 2391,
      "4-0)": 2392,
      "bined": 2393,
      "ध्य": 2394,
      "्च": 2395,
      "சை": 2396,
      "ஜ்": 2397,
      "ழு": 2398,
      "▁[ब": 2399,
      "tive": 2400,
      "ese": 2401,
      "ப்பி": 2402,
      "](https://hi.wikipedia.org/wiki/अ": 2403,
      "र्थ": 2404,
      "ury": 2405,
      "▁June": 2406,
      "स्क": 2407,
      "ंग्रेज़": 2408,
      "துகாப்பு": 2409,
      "रालेखित": 2410,
      "](https://en.wikipedia.org/wiki/T": 2411,
      "_by": 2412,
      "/p": 2413,
      "bi": 2414,
      "eration": 2415,
      "now": 2416,
      "help": 2417,
      ".nic.in/": 2418,
      "File": 2419,
      "ज्": 2420,
      "வல்": 2421,
      "ஸ்த": 2422,
      "జన": 2423,
      "టు": 2424,
      "టె": 2425,
      "2000": 2426,
      "ில்லி": 2427,
      "ill": 2428,
      "ople": 2429,
      "▁చె": 2430,
      "నాయ": 2431,
      "do-": 2432,
      "–సా.శ.పూ.": 2433,
      "▁ఆర్": 2434,
      "పాలిత": 2435,
      "கிறது.": 2436,
      "▁भी": 2437,
      "స్త్రం:": 2438,
      "▁ప్రాంత": 2439,
      "ளாதார": 2440,
      "ేంద్రపాలిత": 2441,
      "](https://te.wikipedia.org/wiki/దస్త్రం:": 2442,
      "oci": 2443,
      "Dyson": 2444,
      "year": 2445,
      "](https://en.wikipedia.org/wiki/R": 2446,
      "1,": 2447,
      "_भारत": 2448,
      "ces": 2449,
      "थान": 2450,
      "हास": 2451,
      "िट": 2452,
      "िश": 2453,
      "▁தலை": 2454,
      "iron": 2455,
      "irst": 2456,
      "▁இந்தியாவில்": 2457,
      "-2)": 2458,
      "ongress": 2459,
      "▁(PDF)": 2460,
      "चित्र": 2461,
      "government": 2462,
      "-language": 2463,
      "/c": 2464,
      "2/": 2465,
      ":[": 2466,
      "▁\"Indian": 2467,
      "\"))\n": 2468,
      "an_": 2469,
      "entre": 2470,
      "▁2019": 2471,
      "-to": 2472,
      "▁Metcalf": 2473,
      "%E0%": 2474,
      "_4": 2475,
      "द्र": 2476,
      "फ़": 2477,
      "ुख": 2478,
      "கர்": 2479,
      "மன்ற": 2480,
      "ఖ్య": 2481,
      "గో": 2482,
      "తో": 2483,
      "బి": 2484,
      "హి": 2485,
      "▁v": 2486,
      "▁ad": 2487,
      "▁0.": 2488,
      "](https://hi.wikipedia.org/wiki/ब": 2489,
      "ும்.[[": 2490,
      "▁India:": 2491,
      "ப்புரு": 2492,
      "ையின்": 2493,
      "▁2012": 2494,
      "uring": 2495,
      "கள்\")": 2496,
      "ிருந்த": 2497,
      "▁கொண்ட": 2498,
      "▁./பகுப்பு:Pages\\_": 2499,
      "Combined": 2500,
      "స్కృ": 2501,
      "arli": 2502,
      "lob": 2503,
      "▁region": 2504,
      "matics": 2505,
      "2018),": 2506,
      "urope": 2507,
      "tro": 2508,
      "ice": 2509,
      "ublishing": 2510,
      "_Indian": 2511,
      "शिया": 2512,
      "ீவு": 2513,
      "▁இய": 2514,
      "ங்கி": 2515,
      "](https://hi.wikipedia.org/wiki/भारत_में": 2516,
      "த்துறை": 2517,
      "▁பகுதி": 2518,
      "வார்ப்புரு": 2519,
      ".\"\n": 2520,
      "31": 2521,
      "Ch": 2522,
      "viron": 2523,
      "king": 2524,
      "ofindia.": 2525,
      "vironment": 2526,
      "er,": 2527,
      "2019": 2528,
      "cember": 2529,
      "_ప": 2530,
      "oc": 2531,
      "ीन": 2532,
      "ஐக்கிய": 2533,
      "நா": 2534,
      "மீ": 2535,
      "ழி": 2536,
      "హా": 2537,
      "ి.\n": 2538,
      "▁ஏ": 2539,
      "▁ను": 2540,
      "▁జాతీయ": 2541,
      "▁\"இ": 2542,
      "▁सम": 2543,
      "\\_errors": 2544,
      "▁உற்ப": 2545,
      "▁हि": 2546,
      "மைப்பு": 2547,
      "▁En": 2548,
      "ேர்த": 2549,
      "%20%20": 2550,
      "त्तर": 2551,
      "ஞ்ச": 2552,
      "్యవస్థ": 2553,
      "File:": 2554,
      "NG": 2555,
      "ron": 2556,
      "▁6": 2557,
      "aste": 2558,
      "7-1": 2559,
      "_W": 2560,
      "cre": 2561,
      "cms": 2562,
      "odi": 2563,
      "▁23": 2564,
      "▁22": 2565,
      "thno": 2566,
      "](https://en.wikipedia.org/wiki/G": 2567,
      "▁16": 2568,
      "▁2008": 2569,
      "▁2023": 2570,
      "▁2022": 2571,
      "Templ": 2572,
      "_உ": 2573,
      "na": 2574,
      "मिल": 2575,
      "ुस": 2576,
      "▁\"O": 2577,
      "த்தை": 2578,
      "▁கட": 2579,
      "▁सूची": 2580,
      "▁வர": 2581,
      "▁குறி": 2582,
      "_and_S": 2583,
      "▁2011\n": 2584,
      "▁போது": 2585,
      "ffair": 2586,
      "ikshi": 2587,
      "udden": 2588,
      "ikshit": 2589,
      "32": 2590,
      "ich": 2591,
      "ris": 2592,
      "▁\"K": 2593,
      "umber": 2594,
      "ibrary": 2595,
      "arti": 2596,
      "JP": 2597,
      "रु": 2598,
      "ूच": 2599,
      "ूर": 2600,
      "ணிய": 2601,
      "தல்": 2602,
      "வும்": 2603,
      "డా": 2604,
      "దా": 2605,
      "బడ": 2606,
      "మే": 2607,
      "రణ": 2608,
      "▁లో": 2609,
      "▁errors": 2610,
      "▁[3": 2611,
      "▁[प": 2612,
      "▁\"L": 2613,
      "cies": 2614,
      "▁நூ": 2615,
      "▁కూ": 2616,
      "-80": 2617,
      "ాలు,": 2618,
      "▁குடிய": 2619,
      "▁రాష్ట్ర": 2620,
      "leshow": 2621,
      "▁([help": 2622,
      "కిస్తాన్": 2623,
      "▁చరిత్ర\")": 2624,
      "▁errors\"))\n": 2625,
      "leshow/": 2626,
      "uman": 2627,
      "_In": 2628,
      "](File:": 2629,
      "alay": 2630,
      "▁Ro": 2631,
      "_இ": 2632,
      "कर": 2633,
      "ते": 2634,
      "நாட்டு": 2635,
      "ம்ஸ்": 2636,
      "▁सरकार": 2637,
      "▁அல்ல": 2638,
      "▁December": 2639,
      "ளையாட்டு": 2640,
      "ashmir": 2641,
      "▁அல்லது": 2642,
      ":EditPage/": 2643,
      "_H": 2644,
      "min": 2645,
      "rin": 2646,
      "yn": 2647,
      "▁le": 2648,
      "ally": 2649,
      "and\\_": 2650,
      "act": 2651,
      "\\_and\\_": 2652,
      "ourn": 2653,
      "230": 2654,
      "▁(PDF).": 2655,
      "8)": 2656,
      "_at": 2657,
      "ority": 2658,
      "▁have": 2659,
      "▁[978-0-19": 2660,
      "▁this": 2661,
      "usic": 2662,
      "पाल": 2663,
      "हु": 2664,
      "ा:": 2665,
      "ैद": 2666,
      "ोक": 2667,
      "டன்": 2668,
      "▁घ": 2669,
      "▁२": 2670,
      "▁ఈ": 2671,
      "▁భారత": 2672,
      "▁India.": 2673,
      "▁பிற": 2674,
      "▁மலை": 2675,
      "▁Chin": 2676,
      "ங்கை": 2677,
      "▁Population": 2678,
      "త్రి": 2679,
      "ాలు\")": 2680,
      "ాలు](https://te.wikipedia.org/wiki/": 2681,
      "](https://en.wikipedia.org/wiki/India#cite_ref-FOOTNOTE": 2682,
      "▁तक": 2683,
      "साँच": 2684,
      "किस्तान": 2685,
      "anuary": 2686,
      "5-0)": 2687,
      "las": 2688,
      "identifiers": 2689,
      "ower": 2690,
      "parame": 2691,
      "6-0)": 2692,
      "_19": 2693,
      "–1": 2694,
      "▁pl": 2695,
      "▁India,": 2696,
      "210": 2697,
      "10.10": 2698,
      "ght": 2699,
      "sc": 2700,
      "्ड": 2701,
      "டப்பட்ட": 2702,
      "பி": 2703,
      "ரச": 2704,
      "வ்": 2705,
      "pedia": 2706,
      "▁[Metcalf": 2707,
      "▁\"H": 2708,
      "்கள": 2709,
      "▁பட்டியல்": 2710,
      "ர்ந்த": 2711,
      "▁மக்கள்": 2712,
      "](https://hi.wikipedia.org/wiki/भारतीय_": 2713,
      "ண்டா": 2714,
      "▁ஒன்ற": 2715,
      "டைம்ஸ்": 2716,
      "ப்படும்": 2717,
      "view": 2718,
      "▁நிறு": 2719,
      "ிரைப்பட": 2720,
      "டிப்படையில்": 2721,
      "Sfn": 2722,
      "pic": 2723,
      "▁languages": 2724,
      "▁[*The": 2725,
      "▁not": 2726,
      ".html": 2727,
      "4–": 2728,
      "ple": 2729,
      "rac": 2730,
      "ley": 2731,
      "/http://www.": 2732,
      "5_": 2733,
      "RC": 2734,
      "_క": 2735,
      "mar": 2736,
      "न\")": 2737,
      "सम": 2738,
      "తు": 2739,
      "పతి": 2740,
      "▁ని": 2741,
      "▁error": 2742,
      "▁స్థ": 2743,
      "▁[W": 2744,
      "▁[ந": 2745,
      "▁[అ": 2746,
      "▁[ప": 2747,
      "▁\"భారతదేశం": 2748,
      "eneral": 2749,
      "்க்க": 2750,
      "్రి": 2751,
      "▁இல": 2752,
      "▁[↑](https://te.wikipedia.org/wiki/భారతదేశం#cite_ref-": 2753,
      "ర్వ": 2754,
      "న్ని": 2755,
      "▁ஆறு": 2756,
      "ों_की_स": 2757,
      "మిళ": 2758,
      "श्चि": 2759,
      "వంశ": 2760,
      "▁error:": 2761,
      "_K": 2762,
      "s\")": 2763,
      "ves": 2764,
      "▁[In": 2765,
      "▁[19": 2766,
      "▁Asian": 2767,
      "▁2016": 2768,
      "duc": 2769,
      "▁[*A": 2770,
      "Sharma": 2771,
      "_c": 2772,
      "ton": 2773,
      "▁k": 2774,
      "▁si": 2775,
      "](https://en.wikipedia.org/wiki/N": 2776,
      "1997": 2777,
      "box": 2778,
      "%2F": 2779,
      "article": 2780,
      "country": 2781,
      "120px-": 2782,
      "illion": 2783,
      ":S": 2784,
      "_templ": 2785,
      "get": 2786,
      "ph": 2787,
      "ओं": 2788,
      "गण": 2789,
      "ीं": 2790,
      "ूप": 2791,
      "தா": 2792,
      "ேற்கு": 2793,
      "▁Y": 2794,
      "▁template": 2795,
      "▁\"ந": 2796,
      "](https://hi.wikipedia.org/wiki/प": 2797,
      "no-t": 2798,
      "\\_identifiers": 2799,
      "\\_no-t": 2800,
      "▁அரசு": 2801,
      "▁Sfn": 2802,
      "ையானது": 2803,
      "▁Pro": 2804,
      ".com/news/": 2805,
      "களை": 2806,
      "archived": 2807,
      "ங்களில்": 2808,
      "▁target": 2809,
      "▁பொ.": 2810,
      "fn_templ": 2811,
      "]](https://hi.wikipedia.org/wiki/भारत#cite_note-FOOTNOTE": 2812,
      "▁பிரதேச": 2813,
      "olitical": 2814,
      "arget\\_errors": 2815,
      "ate_errors": 2816,
      "▁பொருளாதார": 2817,
      "▁ஊ.": 2818,
      "_and_Sfn_templ": 2819,
      "\\_and\\_Sfn": 2820,
      "\\_no-target\\_errors": 2821,
      "▁target:": 2822,
      "_and_Sfn_template_errors": 2823,
      "\\_and\\_Sfn\\_no-target\\_errors": 2824,
      "\\_and\\_Sfn\\_no-target\\_errors\n": 2825,
      "lim": 2826,
      "▁original](https://www.": 2827,
      "entral": 2828,
      "-21": 2829,
      "c=": 2830,
      "e/": 2831,
      "ote": 2832,
      "▁[H": 2833,
      "▁2017": 2834,
      "radition": 2835,
      "▁January": 2836,
      "-f": 2837,
      "-of": 2838,
      "73": 2839,
      "76": 2840,
      "_మ": 2841,
      "_భాష": 2842,
      "are": 2843,
      "रब": 2844,
      "्स": 2845,
      "கர": 2846,
      "ఫ్": 2847,
      "▁స్": 2848,
      "▁[బ": 2849,
      "▁[స": 2850,
      "▁\"అ": 2851,
      "இந்தியா)": 2852,
      "▁किया": 2853,
      "ide": 2854,
      "▁CITEREF": 2855,
      "న్నాయ": 2856,
      "▁కాల": 2857,
      "नाम": 2858,
      "web.archive.org/web/20": 2859,
      "aint": 2860,
      "ులు](https://te.wikipedia.org/wiki/": 2861,
      "▁రై": 2862,
      "Stein2010": 2863,
      "_के_राज्य": 2864,
      "radesh": 2865,
      "ंदिर": 2866,
      "హిందూ": 2867,
      "85": 2868,
      "86": 2869,
      "88": 2870,
      "CN": 2871,
      "eh": 2872,
      "fficial": 2873,
      "hindu": 2874,
      "2012": 2875,
      "ool": 2876,
      "rits": 2877,
      "ats": 2878,
      "dust": 2879,
      "avid": 2880,
      "ritory": 2881,
      ".jpg/330px-": 2882,
      "-c": 2883,
      "53": 2884,
      "500": 2885,
      "99": 2886,
      "cience": 2887,
      "mple": 2888,
      "logue": 2889,
      "india.gov.in": 2890,
      "history": 2891,
      "thnologue": 2892,
      "ffairs": 2893,
      "_प्र": 2894,
      "जी": 2895,
      "दक्षिण": 2896,
      "ष्": 2897,
      "ணா": 2898,
      "▁ர": 2899,
      "▁al": 2900,
      "▁படி": 2901,
      "▁தா": 2902,
      "▁இத": 2903,
      "_பட்டியல்": 2904,
      "▁2020": 2905,
      "▁[978-0": 2906,
      "्वीप": 2907,
      "ிறி": 2908,
      "▁இந்தியப்": 2909,
      "மிழ்": 2910,
      "னர்.": 2911,
      "▁Commission": 2912,
      "ज्ञ": 2913,
      "-l": 2914,
      "▁ag": 2915,
      "aman": 2916,
      "▁Pl": 2917,
      "oll": 2918,
      "▁[Stein": 2919,
      "doi.org/": 2920,
      "_language": 2921,
      "han": 2922,
      "▁\"F": 2923,
      "ature": 2924,
      "/A": 2925,
      "pt": 2926,
      "uj": 2927,
      "ution": 2928,
      "ंजा": 2929,
      "ख्या": 2930,
      "वन": 2931,
      "ென்ன": 2932,
      "ఆసియా": 2933,
      "ద్ర": 2934,
      "భూ": 2935,
      "మె": 2936,
      "య్య": 2937,
      "ర్య": 2938,
      "▁ల": 2939,
      "▁\"ప": 2940,
      "▁\"బ": 2941,
      "▁\"స": 2942,
      "▁பேரரசு": 2943,
      "2016": 2944,
      "▁இரா": 2945,
      "ப்புற": 2946,
      "▁நாட": 2947,
      "▁சே": 2948,
      "न्न": 2949,
      "AARC": 2950,
      "_Press": 2951,
      "త్త": 2952,
      "▁అధిక": 2953,
      "ம்பரிய": 2954,
      "▁ప్రదేశ్": 2955,
      "▁உள்ளது.": 2956,
      "ప్రదేశ్": 2957,
      "_நாடு": 2958,
      "▁[2](https://ta.wikipedia.org/wiki/இந்தியா#cite_ref-FOOTNOTE": 2959,
      "▁[1](https://ta.wikipedia.org/wiki/இந்தியா#cite_ref-FOOTNOTE": 2960,
      "▁भाषा\")": 2961,
      "tent": 2962,
      "▁खाना": 2963,
      "%E0%A": 2964,
      "▁నుండి": 2965,
      "ournal": 2966,
      "ों_की_सूची": 2967,
      "ंजाब": 2968,
      "7/": 2969,
      "uri": 2970,
      "\\_parame": 2971,
      "entury": 2972,
      "ell": 2973,
      "ories": 2974,
      "contain": 2975,
      "/articleshow/": 2976,
      "-d": 2977,
      "-19": 2978,
      "74": 2979,
      "7-0)": 2980,
      "mi": 2981,
      "tal": 2982,
      "▁28": 2983,
      "▁year": 2984,
      "](https://en.wikipedia.org/wiki/Indian": 2985,
      "lear": 2986,
      "▁their": 2987,
      "igh": 2988,
      "uclear": 2989,
      "2–": 2990,
      "_re": 2991,
      "ocial": 2992,
      "बसे": 2993,
      "ुल": 2994,
      "▁<": 2995,
      "ந்தை": 2996,
      "▁sfn": 2997,
      "ेंद्र": 2998,
      "](https://hi.wikipedia.org/wiki/भारत_क": 2999,
      "Union": 3000,
      "▁இருந்து": 3001,
      "▁गया": 3002,
      "▁\"சிறப்பு:BookSources/978-1": 3003,
      "](https://ta.wikipedia.org/wiki/சிறப்பு:BookSources/978-1": 3004,
      "▁राज्यों": 3005,
      "ovember": 3006,
      "▁மாநில": 3007,
      "▁அரசிய": 3008,
      "▁subcontinent": 3009,
      "ographi": 3010,
      "-28": 3011,
      "79": 3012,
      "ale": 3013,
      "etwe": 3014,
      "-40": 3015,
      "▁[\"India": 3016,
      "nglish": 3017,
      "ters#": 3018,
      "\\_parameters#": 3019,
      "etween": 3020,
      "fter": 3021,
      "cient": 3022,
      "ourt": 3023,
      "ural": 3024,
      "timesofindia.": 3025,
      "censusindia.gov.in/": 3026,
      "timesofindia.indiatimes.com/": 3027,
      "_வ": 3028,
      "चल": 3029,
      "बंध": 3030,
      "ணக்க": 3031,
      "ளவு": 3032,
      "ణి": 3033,
      "తమిళ": 3034,
      "మైన": 3035,
      "హార": 3036,
      "ోర్": 3037,
      "▁ட": 3038,
      "▁30": 3039,
      "▁\"ఇ": 3040,
      "▁\"భారత": 3041,
      "](https://te.wikipedia.org/wiki/బ": 3042,
      "ள்நாட்டு": 3043,
      "▁Ar": 3044,
      "ங்கா": 3045,
      "▁हो": 3046,
      "ayan": 3047,
      "▁మొ": 3048,
      "▁नि": 3049,
      "నాగ": 3050,
      "త్తర": 3051,
      "ులు\")": 3052,
      "न्द्र": 3053,
      "▁original](https://": 3054,
      "ாளு": 3055,
      "_De": 3056,
      "▁[मूल": 3057,
      "ियों": 3058,
      "▁அமைப்பு": 3059,
      "மையான": 3060,
      "▁இந்து": 3061,
      "శ్మీ": 3062,
      "మూస:": 3063,
      "lobal": 3064,
      "JPG": 3065,
      "%7": 3066,
      "fr": 3067,
      "ia": 3068,
      "rish": 3069,
      "▁'": 3070,
      "▁[O": 3071,
      "annic": 3072,
      "▁1.": 3073,
      "▁Talbot": 3074,
      "ritannic": 3075,
      "argest": 3076,
      "countries": 3077,
      "yste": 3078,
      "containing\\_": 3079,
      "BC": 3080,
      "ini": 3081,
      "▁into": 3082,
      "▁13": 3083,
      "low": 3084,
      "using\\_": 3085,
      "ake": 3086,
      "time": 3087,
      "ruary": 3088,
      "ebruary": 3089,
      "Schwartzberg": 3090,
      "athe": 3091,
      "fic": 3092,
      "ology": 3093,
      "uis": 3094,
      "ब्": 3095,
      "िन": 3096,
      "ிட்ட": 3097,
      "ுக": 3098,
      "ேம்ப": 3099,
      "ond": 3100,
      "ந்திய": 3101,
      "1970": 3102,
      "▁सबसे": 3103,
      "▁வட": 3104,
      "▁வரு": 3105,
      "ையும்": 3106,
      "▁ஆற்ற": 3107,
      "ண்ண": 3108,
      "ண்ப": 3109,
      "▁March": 3110,
      "▁என்று": 3111,
      "ालय": 3112,
      "epublic": 3113,
      "स्था": 3114,
      "चीन": 3115,
      "also": 3116,
      "ohn": 3117,
      "▁पुरालेखित": 3118,
      "▁countries": 3119,
      "Articles\\_with\\_": 3120,
      "▁सूची\")": 3121,
      "▁पुरालेखित।": 3122,
      "_2": 3123,
      "▁government": 3124,
      "](https://en.wikipedia.org/wiki/In": 3125,
      "eds.": 3126,
      "etail": 3127,
      "anges": 3128,
      "files/": 3129,
      "▁me": 3130,
      "-317": 3131,
      "Robb": 3132,
      "rade": 3133,
      "1-0": 3134,
      "7_": 3135,
      "CE": 3136,
      "cc": 3137,
      "ura": 3138,
      "▁en": 3139,
      "\\_s": 3140,
      "▁Se": 3141,
      "▁**[": 3142,
      "Craven": 3143,
      "_f": 3144,
      "utt": 3145,
      "जरा": 3146,
      "ेव": 3147,
      "ैन": 3148,
      "மய": 3149,
      "శా": 3150,
      "ైనా": 3151,
      "▁[ఇ": 3152,
      "▁\"జ": 3153,
      "](https://ta.wikipedia.org/wiki/இ": 3154,
      "](https://hi.wikipedia.org/wiki/चित्र": 3155,
      "](https://te.wikipedia.org/wiki/ఇ": 3156,
      "](https://te.wikipedia.org/wiki/స": 3157,
      "\\_im": 3158,
      "ும்ப": 3159,
      "▁வீ": 3160,
      "▁இவை": 3161,
      "భారత_": 3162,
      "க்_க": 3163,
      "రాజ": 3164,
      "లో](https://te.wikipedia.org/wiki/": 3165,
      "రిజ": 3166,
      "క్కు": 3167,
      "ிலிருந்து": 3168,
      "_பல்கலைக்கழ": 3169,
      "ियाँ": 3170,
      "ండ్": 3171,
      "▁முறை": 3172,
      "▁February": 3173,
      "](https://ta.wikipedia.org/wiki/இந்திய_": 3174,
      ".jpg)](https://te.wikipedia.org/wiki/దస్త్రం:": 3175,
      "auth": 3176,
      "क्ति": 3177,
      "/article": 3178,
      "வெளி": 3179,
      "▁கொண்டுள்ளது.": 3180,
      "▁அதிகரி": 3181,
      "స్కృతి": 3182,
      "censusindia.gov.in/2011": 3183,
      "ணக்கெடு": 3184,
      "Craven1997": 3185,
      "busin": 3186,
      "▁27": 3187,
      "▁[F": 3188,
      "India_": 3189,
      "omen": 3190,
      "ade": 3191,
      "olper": 3192,
      "▁K.": 3193,
      "Harle1994": 3194,
      "olpert": 3195,
      "9-0)": 3196,
      "UN": 3197,
      "olic": 3198,
      "ugh": 3199,
      "▁ac": 3200,
      "one": 3201,
      "ources": 3202,
      "▁2004": 3203,
      "able": 3204,
      "articles": 3205,
      "depend": 3206,
      "olicy": 3207,
      "-re": 3208,
      "eople": 3209,
      "प्त": 3210,
      "ोर": 3211,
      "।[[": 3212,
      "கப்_ப": 3213,
      "லு": 3214,
      "ாண்ட": 3215,
      "▁also": 3216,
      "▁[उ": 3217,
      "இந்து": 3218,
      "▁Census": 3219,
      "rovision": 3220,
      "dex": 3221,
      "▁जिस": 3222,
      "▁1950": 3223,
      "▁प्रा": 3224,
      "▁பெரிய": 3225,
      "லாய": 3226,
      "स्थान": 3227,
      "▁பகுதிய": 3228,
      "▁மிகப்": 3229,
      "பாய்": 3230,
      "ளர்ச்சி": 3231,
      "ुसार": 3232,
      "dom": 3233,
      "dus": 3234,
      "old": 3235,
      "▁[doi": 3236,
      "▁2015": 3237,
      "1996": 3238,
      "▁been": 3239,
      "▁2021.\n": 3240,
      "-25": 3241,
      "ID": 3242,
      "jab": 3243,
      "▁ar": 3244,
      "site": 3245,
      "▁but": 3246,
      "semb": 3247,
      "eport": 3248,
      "▁2014.\n": 3249,
      "C),": 3250,
      "Dikshit": 3251,
      "IA": 3252,
      "च्च": 3253,
      "ण्ड": 3254,
      "वरी": 3255,
      "வற்ற": 3256,
      "ோர்": 3257,
      "ం?action=edit&redlink=1": 3258,
      "చే": 3259,
      "బా": 3260,
      "▁ed.": 3261,
      "▁[జ": 3262,
      "](https://ta.wikipedia.org/wiki/ந": 3263,
      "estern": 3264,
      "▁பே": 3265,
      "▁பிரி": 3266,
      "▁கார": 3267,
      "▁தொழ": 3268,
      "▁పా": 3269,
      "▁between": 3270,
      "](https://hi.wikipedia.org/wiki/भारत#CITEREF": 3271,
      "குடிய": 3272,
      "▁వా": 3273,
      "ండు": 3274,
      "▁చూ": 3275,
      "_सं": 3276,
      "త్వ": 3277,
      "ప్రధాన": 3278,
      "▁है।\n": 3279,
      "▁பாதுகாப்பு": 3280,
      "▁తే": 3281,
      "MetcalfMetcalf2006),": 3282,
      "▁साथ": 3283,
      "▁மிக": 3284,
      "▁உருவா": 3285,
      "](https://hi.wikipedia.org/wiki/भारत_में_": 3286,
      "ேர்தல்": 3287,
      "▁நூற்ற": 3288,
      "ிரைப்படத்துறை": 3289,
      "Schwartzberg2023": 3290,
      "_பல்கலைக்கழகப்_ப": 3291,
      "DikshitSchwartzberg2023": 3292,
      "_பல்கலைக்கழகப்_பதிப்பகம்": 3293,
      "-g": 3294,
      "-23": 3295,
      "je": 3296,
      "org": 3297,
      "edic": 3298,
      "cite": 3299,
      "2017": 3300,
      "▁world": 3301,
      "South_A": 3302,
      "ystem": 3303,
      "91": 3304,
      "ft": 3305,
      "y-": 3306,
      "ince": 3307,
      "iss": 3308,
      "▁population": 3309,
      "ument": 3310,
      "ung": 3311,
      "▁Empire": 3312,
      "▁[978-0-": 3313,
      "_20": 3314,
      "imp": 3315,
      "rans": 3316,
      "आई": 3317,
      "ाम": 3318,
      "னம்": 3319,
      "ப்த": 3320,
      "வங்காள": 3321,
      "▁था": 3322,
      "▁1998": 3323,
      "▁धर्म": 3324,
      "▁\"J": 3325,
      "▁\"श्रेणी:Harv": 3326,
      "\").[[": 3327,
      "](https://hi.wikipedia.org/wiki/श्रेणी:Harv": 3328,
      "▁सि": 3329,
      "ங்கில": 3330,
      "க்_": 3331,
      "▁first": 3332,
      "ிரசு": 3333,
      "▁cons": 3334,
      "டுத்த": 3335,
      "याल": 3336,
      "ட்ஜ்": 3337,
      "ற்கா": 3338,
      "्वर": 3339,
      "▁./श्रेणी:Harv": 3340,
      "▁आधार": 3341,
      "_மொழி": 3342,
      "▁संघ": 3343,
      "templates": 3344,
      "தேசிய": 3345,
      "पाकिस्तान": 3346,
      "KulkeRothermund2004": 3347,
      "▁பாரம்பரிய": 3348,
      "வார்ப்புரு:": 3349,
      "▁([help](https://hi.wikipedia.org/wiki/श्रेणी:Harv": 3350,
      "_and_Sfn_template_errors?action=edit&redlink=1": 3351,
      "ிறிட்ஜ்": 3352,
      "ேம்பிறிட்ஜ்": 3353,
      "▁./श्रेणी:Harv\\_and\\_Sfn\\_no-target\\_errors\n": 3354,
      "▁([help](https://hi.wikipedia.org/wiki/श्रेणी:Harv_and_Sfn_template_errors?action=edit&redlink=1": 3355,
      "84": 3356,
      "kar": 3357,
      "ok": 3358,
      "oin": 3359,
      "▁per": 3360,
      "▁2024": 3361,
      "\"](https://books.google.com/books?id=": 3362,
      "▁[*India": 3363,
      "owland": 3364,
      "arliament": 3365,
      "\".": 3366,
      "ece": 3367,
      "wo": 3368,
      "wing": 3369,
      "tel": 3370,
      "amp": 3371,
      "ritories": 3372,
      "University_Press": 3373,
      "_సా": 3374,
      "bar": 3375,
      "ute": 3376,
      "की": 3377,
      "णा": 3378,
      "तंत्र": 3379,
      "्ला": 3380,
      "க்த": 3381,
      "ூபாய்": 3382,
      "ெரு": 3383,
      "ంప": 3384,
      "కో": 3385,
      "గణ": 3386,
      "దిన": 3387,
      "నై": 3388,
      "రీ": 3389,
      "▁us": 3390,
      "▁विश्व": 3391,
      "▁\"उ": 3392,
      "▁\"చ": 3393,
      "](https://hi.wikipedia.org/wiki/उ": 3394,
      "க்கோ": 3395,
      "](https://te.wikipedia.org/wiki/జ": 3396,
      "ారం": 3397,
      "-17": 3398,
      "्यट": 3399,
      "▁14": 3400,
      "ச்சிய": 3401,
      "▁క్రీ": 3402,
      "క్‌": 3403,
      "నికి": 3404,
      "ల్ల": 3405,
      "ाली": 3406,
      "ంగీ": 3407,
      "▁సి": 3408,
      "form": 3409,
      "ட்ப": 3410,
      "నాభా": 3411,
      "ங்களை": 3412,
      "జాబి": 3413,
      "▁[![](https://upload.wikimedia.org/wikipedia/commons/thumb/": 3414,
      "▁\"இந்தியாவின்": 3415,
      "श्मी": 3416,
      "▁பதிப்பகம்\"),": 3417,
      "▁శా": 3418,
      "▁భాష\")": 3419,
      "▁[Archived](https://web.archive.org/web/201": 3420,
      "బెంగ": 3421,
      "▁<https://": 3422,
      "జాబితా": 3423,
      "124": 3424,
      "2),": 3425,
      "6–": 3426,
      "71": 3427,
      "Nav": 3428,
      "az": 3429,
      "f/": 3430,
      "lor": 3431,
      "▁wi": 3432,
      "ann": 3433,
      "chno": 3434,
      "gency": 3435,
      "93": 3436,
      "gy": 3437,
      "y,": 3438,
      "](https://en.wikipedia.org/wiki/H": 3439,
      "▁Publishing": 3440,
      "ulti": 3441,
      ".as": 3442,
      "2,": 3443,
      "8-0)": 3444,
      "TR": 3445,
      "_I": 3446,
      "_V": 3447,
      "iver": 3448,
      "ंब": 3449,
      "गढ़": 3450,
      "ज्य": 3451,
      "तमिल": 3452,
      "दा": 3453,
      "भी": 3454,
      "वे": 3455,
      "ांग": 3456,
      "ेर": 3457,
      "மான்": 3458,
      "ர்த்த": 3459,
      "▁[J": 3460,
      "esearch": 3461,
      "1947": 3462,
      "्रिट": 3463,
      "rick": 3464,
      "](https://ta.wikipedia.org/wiki/இந்தியாவின்": 3465,
      "▁கட்ட": 3466,
      "\\_templates": 3467,
      "▁Sh": 3468,
      "here": 3469,
      "▁अधिक": 3470,
      "▁National": 3471,
      "ராச": 3472,
      "▁முதல்": 3473,
      "तिहास": 3474,
      "▁விளையாட்டு": 3475,
      "▁செய": 3476,
      "CS1": 3477,
      "▁१९": 3478,
      "▁பெரும்ப": 3479,
      "▁ஓர்": 3480,
      "युक्त": 3481,
      "ganisation": 3482,
      "स्कृत": 3483,
      "▁हिन्द": 3484,
      "dustry": 3485,
      "ாளுமன்ற": 3486,
      "7,": 3487,
      "Qu": 3488,
      "bank": 3489,
      "a.gov": 3490,
      "\"):": 3491,
      "](https://en.wikipedia.org/wiki/L": 3492,
      "196": 3493,
      "idd": 3494,
      "sical": 3495,
      "▁co": 3496,
      "▁Th": 3497,
      "akh": 3498,
      ".jpg/120px-": 3499,
      "▁Development": 3500,
      "_O": 3501,
      "ks": 3502,
      "▁Cambridge": 3503,
      "doc": 3504,
      "gar": 3505,
      "में": 3506,
      "रे": 3507,
      "ஃப்": 3508,
      "ணைய": 3509,
      "னா": 3510,
      "வான": 3511,
      "చల్": 3512,
      "యన్": 3513,
      "షు": 3514,
      "ూర్": 3515,
      "▁[చ": 3516,
      "▁[భారత": 3517,
      "▁[భారతీయ": 3518,
      "al_P": 3519,
      "▁(eds.": 3520,
      "](https://te.wikipedia.org/wiki/ప": 3521,
      "](https://te.wikipedia.org/wiki/భారతీయ": 3522,
      "rib": 3523,
      "▁மொத்த": 3524,
      "▁கட்டு": 3525,
      "ార్ట": 3526,
      "ాలయ": 3527,
      "▁मान": 3528,
      "▁2013": 3529,
      "urr": 3530,
      "ள்ளது.[[": 3531,
      "క్క": 3532,
      "▁వ్యవస్థ": 3533,
      "▁ము": 3534,
      "▁1947": 3535,
      "ட்ச": 3536,
      "ండో": 3537,
      "▁बाद": 3538,
      "▁முன்ன": 3539,
      "्वार": 3540,
      "ముంబ": 3541,
      "imf": 3542,
      "సిన": 3543,
      "▁குறை": 3544,
      "ినల్": 3545,
      "ద్ద": 3546,
      "▁ఉన్న": 3547,
      "▁ఉన్నాయ": 3548,
      ".jpg)](File:": 3549,
      "िल्ल": 3550,
      "పాకిస్తాన్": 3551,
      "னைத்து": 3552,
      "engal": 3553,
      "ంధీ": 3554,
      "्राज्य": 3555,
      "▁ఒక": 3556,
      "▁ఒరిజ": 3557,
      "▁2006](https://ta.wikipedia.org/wiki/இந்தியா#CITEREF": 3558,
      "-to-": 3559,
      "వంశం": 3560,
      "மிழ்ந": 3561,
      "](https://hi.wikipedia.org/wiki/चित्र:": 3562,
      "▁తేదీ": 3563,
      "ార్టీ": 3564,
      "▁ఒరిజినల్": 3565,
      "127": 3566,
      "4-7": 3567,
      ";\n": 3568,
      "van": 3569,
      "▁over": 3570,
      "▁India*](https://books.google.com/books?id=": 3571,
      "umar": 3572,
      "▁\"South": 3573,
      "artment": 3574,
      "ingham": 3575,
      "▁Island": 3576,
      "3),": 3577,
      "55": 3578,
      "detail": 3579,
      "gra": 3580,
      "jan": 3581,
      "thehindu": 3582,
      "edu": 3583,
      "-14": 3584,
      "▁1,": 3585,
      "unjab": 3586,
      "▁*The": 3587,
      "formatics": 3588,
      "▁Oxford": 3589,
      ".svg": 3590,
      "▁years": 3591,
      "chnology": 3592,
      "_இந்திய": 3593,
      "_और": 3594,
      "एं": 3595,
      "वर्": 3596,
      "शास": 3597,
      "றிய": 3598,
      "வையாக": 3599,
      "ேப": 3600,
      "ொரு": 3601,
      "▁es": 3602,
      "ந்திர": 3603,
      "eser": 3604,
      "▁பல": 3605,
      "இந்தியா\n": 3606,
      "▁कार": 3607,
      "▁மக்கள": 3608,
      "▁கூ": 3609,
      "▁வழ": 3610,
      "▁வணி": 3611,
      "ross": 3612,
      "ட்சிய": 3613,
      "▁...": 3614,
      "▁For": 3615,
      "क्षेत्र": 3616,
      "माण": 3617,
      "ड़ा": 3618,
      "ார்.": 3619,
      "▁शास": 3620,
      "म्ब": 3621,
      "▁साम": 3622,
      "▁यह": 3623,
      "▁./பகுப்பு:Articles\\_with\\_": 3624,
      "▁[भारतीय": 3625,
      "▁தேசிய": 3626,
      "▁உற்பத்தி": 3627,
      "ज्ञान": 3628,
      "ுகலாய": 3629,
      "CO": 3630,
      "New": 3631,
      "▁all": 3632,
      "1950": 3633,
      "str": 3634,
      "wealth": 3635,
      "urton": 3636,
      "▁(identifier)\"):[": 3637,
      "worldbank": 3638,
      "▁\"Special:BookSources/978-1": 3639,
      "](Special:BookSources/978-1": 3640,
      "▁other": 3641,
      "-50": 3642,
      "89": 3643,
      "En": 3644,
      "d/": 3645,
      "ned": 3646,
      "ose": 3647,
      "andard": 3648,
      ".png": 3649,
      "ujar": 3650,
      ",NG": 3651,
      "UCN": 3652,
      "_भाषा": 3653,
      "bn": 3654,
      "oor": 3655,
      "t-": 3656,
      "तर": 3657,
      "ाट": 3658,
      "ள்க": 3659,
      "జ్": 3660,
      "వరి": 3661,
      "శ్చ": 3662,
      "ిన్న": 3663,
      "ెల": 3664,
      "▁थ": 3665,
      "▁டைம்ஸ்": 3666,
      "](https://web.archive.org/web/201": 3667,
      "▁[உ": 3668,
      "▁\"భారతదేశ": 3669,
      "▁\"विशेष:पुस्तक": 3670,
      "ியாக": 3671,
      "off": 3672,
      "](https://hi.wikipedia.org/wiki/ISBN_(identifier)": 3673,
      "](https://hi.wikipedia.org/wiki/विशेष:पुस्तक": 3674,
      "్రె": 3675,
      "த்தான்": 3676,
      "▁स्रोत/978": 3677,
      "▁வடி": 3678,
      "ானவை": 3679,
      "▁पा": 3680,
      "▁Pradesh": 3681,
      "](https://hi.wikipedia.org/wiki/भारत_के_": 3682,
      "▁2003": 3683,
      "ాలు\n": 3684,
      "నిస్తాన్": 3685,
      "▁మధ్య": 3686,
      "▁[ISBN](https://hi.wikipedia.org/wiki/ISBN_(identifier)": 3687,
      "लाई": 3688,
      "▁./श्रेणी:": 3689,
      "▁./Category:": 3690,
      "_स्रोत/978": 3691,
      "](https://te.wikipedia.org/wiki/భారతదేశంలో": 3692,
      "స్థాన్": 3693,
      "_के_आ": 3694,
      "India.jpg": 3695,
      "▁लि": 3696,
      "▁Asia\")": 3697,
      "cyc": 3698,
      "▁உலகின்": 3699,
      "ligi": 3700,
      "▁పేజీ": 3701,
      "ணுவ": 3702,
      "మ్మూ": 3703,
      "nown": 3704,
      "Dyson2018": 3705,
      "Template": 3706,
      "साँचा:": 3707,
      "▁\"భారతదేశంలో": 3708,
      "श्चिम": 3709,
      "busines": 3710,
      "▁చూసిన": 3711,
      "ांग्ला": 3712,
      "▁తేదీ:": 3713,
      "శ్చి": 3714,
      "](https://hi.wikipedia.org/wiki/विशेष:पुस्तक_स्रोत/978": 3715,
      "▁పేజీని": 3716,
      "3_": 3717,
      "4/": 3718,
      "545": 3719,
      "ls": 3720,
      "▁$": 3721,
      "▁\"W": 3722,
      "come": 3723,
      "▁12": 3724,
      "rah": 3725,
      "itz": 3726,
      "▁BCE": 3727,
      "epartment": 3728,
      "▁national": 3729,
      "▁during": 3730,
      "otals": 3731,
      "ritsch": 3732,
      "5/": 3733,
      "_ter": 3734,
      "_14": 3735,
      "la": 3736,
      "ya": 3737,
      "▁29": 3738,
      "es,": 3739,
      "▁more": 3740,
      "_of_the": 3741,
      "a_S": 3742,
      "umbai": 3743,
      "avi": 3744,
      "▁[Asher": 3745,
      "▁Comp": 3746,
      "▁comp": 3747,
      "sembly": 3748,
      "iddle": 3749,
      "-le": 3750,
      "110": 3751,
      "5–": 3752,
      "c.": 3753,
      "pib": 3754,
      "ंप": 3755,
      "मुख": 3756,
      "தம": 3757,
      "ிலை": 3758,
      "▁राष्ट्रीय": 3759,
      "▁archived": 3760,
      "▁\"ஆ": 3761,
      "▁\"தி": 3762,
      "aran": 3763,
      "](https://ta.wikipedia.org/wiki/தி": 3764,
      "ம்,": 3765,
      "ough": 3766,
      "▁வந்த": 3767,
      "▁C.": 3768,
      "▁Al": 3769,
      "▁அக": 3770,
      "ையை": 3771,
      "▁Pakistan": 3772,
      "▁Min": 3773,
      "_of_C": 3774,
      "▁जु": 3775,
      "▁है,": 3776,
      "ेश्वर": 3777,
      "ாலி": 3778,
      "த்துவ": 3779,
      "harat": 3780,
      "▁\"சிறப்பு:BookSources/978-0": 3781,
      "](https://ta.wikipedia.org/wiki/சிறப்பு:BookSources/978-0": 3782,
      "▁उप": 3783,
      "னித": 3784,
      "▁यु": 3785,
      "▁மூல": 3786,
      "त्प": 3787,
      "ிழக்கு": 3788,
      "गुजरा": 3789,
      "ूचना": 3790,
      "▁பட்டியல்\")": 3791,
      "▁நிறுவன": 3792,
      "Sharma2007": 3793,
      "_प्रदेश": 3794,
      "rishn": 3795,
      "्रिटिश": 3796,
      "/auth": 3797,
      "300": 3798,
      "DD": 3799,
      "ban": 3800,
      "jpg/": 3801,
      "kim": 3802,
      "encies": 3803,
      "](https://en.wikipedia.org/wiki/K": 3804,
      "▁Con": 3805,
      "chin": 3806,
      "chool": 3807,
      "▁R.": 3808,
      "▁Di": 3809,
      "▁2001": 3810,
      "▁J.": 3811,
      "▁[\"C": 3812,
      "▁[978-81": 3813,
      "ative": 3814,
      "▁language\")": 3815,
      "ummit\")": 3816,
      "Wikipedia": 3817,
      "IUCN": 3818,
      "S.": 3819,
      "_University_Press": 3820,
      "tain": 3821,
      "va": 3822,
      "\")**": 3823,
      "▁Constitution": 3824,
      "agar": 3825,
      "ilg": 3826,
      "160": 3827,
      "arket": 3828,
      "-n": 3829,
      "-78": 3830,
      "/h": 3831,
      "4-0": 3832,
      "5]](https://ta.wikipedia.org/wiki/இந்தியா#cite_note-FOOTNOTE": 3833,
      ">.\n": 3834,
      "K:": 3835,
      "_पर": 3836,
      "ata.": 3837,
      "hat": 3838,
      "stitu": 3839,
      "ui": 3840,
      "काल": 3841,
      "बाद": 3842,
      "रक्ष": 3843,
      "वाद": 3844,
      "ाष्ट्र": 3845,
      "ागर": 3846,
      "ोर्": 3847,
      "ஜி": 3848,
      "லிய": 3849,
      "షన్": 3850,
      "హ్": 3851,
      "ెలు": 3852,
      "▁ஐ": 3853,
      "▁[सं": 3854,
      "tec": 3855,
      "](https://en.wikipedia.org/wiki/F": 3856,
      "](https://te.wikipedia.org/wiki/అ": 3857,
      "▁கணக்கெடு": 3858,
      "▁தோ": 3859,
      "logo": 3860,
      "ண்ட்": 3861,
      "िक्ष": 3862,
      "రియా": 3863,
      "▁మార్": 3864,
      "▁பெற்ற": 3865,
      "ప్రపంచ": 3866,
      "_मेला": 3867,
      "नेमा": 3868,
      "னர்.[[": 3869,
      "▁సంస్కృతి": 3870,
      "దీవ": 3871,
      "धार_पर": 3872,
      "द्योग": 3873,
      "हाराष्ट्र": 3874,
      "ிரித்தானிய": 3875,
      "ஸ்தான்": 3876,
      "censusindia.gov.in/2011census": 3877,
      "_के_आधार_पर": 3878,
      "_के_आधार_पर_भारत": 3879,
      "-29": 3880,
      "119": 3881,
      "_to": 3882,
      "ds": 3883,
      "dat": 3884,
      "rganisation": 3885,
      "zation": 3886,
      "▁[[": 3887,
      "andhi": 3888,
      "▁most": 3889,
      "resid": 3890,
      "cond": 3891,
      "118": 3892,
      "fore": 3893,
      "ustr": 3894,
      "▁[t": 3895,
      "ropp": 3896,
      "22)": 3897,
      "-90": 3898,
      "meric": 3899,
      "3/": 3900,
      "4]](https://ta.wikipedia.org/wiki/இந்தியா#cite_note-FOOTNOTE": 3901,
      "54": 3902,
      "Vi": 3903,
      "_J": 3904,
      "press": 3905,
      "uch": 3906,
      "एशिया": 3907,
      "ली": 3908,
      "கார": 3909,
      "டா": 3910,
      "தை": 3911,
      "வட": 3912,
      "ொது": 3913,
      "▁ஜ": 3914,
      "ப்பா": 3915,
      "ப்பாட்ட": 3916,
      "▁கூட்ட": 3917,
      "▁स्व": 3918,
      "▁par": 3919,
      "▁Act": 3920,
      "▁मंदिर": 3921,
      "्यव": 3922,
      "▁சட்ட": 3923,
      "▁உண": 3924,
      "▁உள்நாட்டு": 3925,
      "-88": 3926,
      "▁Hindi": 3927,
      "▁Nations": 3928,
      "▁दक्षिण": 3929,
      "ंगा": 3930,
      "▁form": 3931,
      "ம்பி": 3932,
      "ணிக்க": 3933,
      "%20இந்தியா\n": 3934,
      "ated\\_parameters#": 3935,
      "\\_with\\_dep": 3936,
      "ஞ்சிய": 3937,
      "ீனா": 3938,
      "ூர்வ": 3939,
      "recated\\_parameters#": 3940,
      "ंग्रेज़ी": 3941,
      "▁./பகுப்பு:Pages\\_containing\\_": 3942,
      "▁पुरालेखित।.": 3943,
      "▁காரண": 3944,
      "cite\\_templates": 3945,
      "▁जुलाई": 3946,
      "_के_आधार_पर_भारत_के_राज्य": 3947,
      "\\_with\\_deprecated\\_parameters#": 3948,
      "▁./பகுப்பு:Pages\\_containing\\_cite\\_templates": 3949,
      "\\_with\\_deprecated\\_parameters#%20இந்தியா\n": 3950,
      "▁./பகுப்பு:Pages\\_containing\\_cite\\_templates\\_with\\_deprecated\\_parameters#%20இந்தியா\n": 3951,
      "1-4": 3952,
      "Ludden": 3953,
      "a)": 3954,
      "lang": 3955,
      "ssembly": 3956,
      "orther": 3957,
      "](https://doi.org/": 3958,
      "leg": 3959,
      "▁Congress": 3960,
      "▁system": 3961,
      "▁Times": 3962,
      "_summit": 3963,
      "rown": 3964,
      "ropped": 3965,
      "orthern": 3966,
      "3%": 3967,
      "72": 3968,
      "EX": 3969,
      "pur": 3970,
      "rag": 3971,
      "tates": 3972,
      "\");": 3973,
      "▁pri": 3974,
      "▁Sanskrit": 3975,
      "ments": 3976,
      "content": 3977,
      "▁November": 3978,
      "under": 3979,
      "inistry_of_": 3980,
      "▁Environment": 3981,
      "-ஆ": 3982,
      ".htm": 3983,
      ".JPG": 3984,
      "64": 3985,
      "81": 3986,
      "_-": 3987,
      "ymb": 3988,
      "तेल": 3989,
      "ीस": 3990,
      "००": 3991,
      "தம்": 3992,
      "தற்கு": 3993,
      "யு": 3994,
      "றவு": 3995,
      "ொகை": 3996,
      "ం\"),": 3997,
      "ంత్రి": 3998,
      "ఆఫ్": 3999,
      "కత": 4000,
      "కై": 4001,
      "క్య": 4002,
      "దాయ": 4003,
      "రే": 4004,
      "లంక": 4005,
      "వీ": 4006,
      "శ్రీ": 4007,
      "షి": 4008,
      "సు": 4009,
      "▁ఏ": 4010,
      "▁2.": 4011,
      "▁नाम": 4012,
      "▁[ஆ": 4013,
      "▁[ஐ": 4014,
      "▁[సి": 4015,
      "ering": 4016,
      "ந்தி": 4017,
      "](https://en.wikipedia.org/wiki/J": 4018,
      "▁பய": 4019,
      "](https://te.wikipedia.org/wiki/చ": 4020,
      "▁கரு": 4021,
      "▁கிரா": 4022,
      "▁இதன்": 4023,
      "స్సా": 4024,
      "▁पूर्व": 4025,
      "▁పరి": 4026,
      "▁పార్టీ": 4027,
      "న్‌": 4028,
      "ண்.": 4029,
      "1999": 4030,
      "26)": 4031,
      "▁ab": 4032,
      "▁కు": 4033,
      "-85": 4034,
      "▁अप": 4035,
      "▁என்ப": 4036,
      "▁వచ్చ": 4037,
      "नाग": 4038,
      "▁English": 4039,
      "ముద్ర": 4040,
      "▁विक": 4041,
      "▁பெய": 4042,
      "2006),": 4043,
      "▁bec": 4044,
      "_Delhi": 4045,
      "](https://ta.wikipedia.org/wiki/இந்திய_அ": 4046,
      "▁போட்டி": 4047,
      "▁Press\").": 4048,
      "▁It": 4049,
      "గాంధీ": 4050,
      "▁ஆகும்.": 4051,
      "▁[↑](https://hi.wikipedia.org/wiki/भारत#cite_ref-FOOTNOTE": 4052,
      "களின்_பட்டியல்": 4053,
      "▁रूप": 4054,
      "▁நிலை": 4055,
      "నేపాల": 4056,
      "▁పేరు": 4057,
      "హిందీ": 4058,
      "▁देशों": 4059,
      "▁చెయ్య": 4060,
      "crease": 4061,
      "▁కూడా": 4062,
      "▁தொழில்": 4063,
      "ంగీతం": 4064,
      "Navbox": 4065,
      "ముంబై": 4066,
      "▁வடிவ": 4067,
      "శ్చిమ": 4068,
      "▁మార్గ": 4069,
      "▁చెయ్యబడ": 4070,
      "/India": 4071,
      "42": 4072,
      "cri": 4073,
      "yle": 4074,
      "religion": 4075,
      "India)": 4076,
      "ister": 4077,
      "inguis": 4078,
      "adesh": 4079,
      "00)": 4080,
      "pear": 4081,
      "286": 4082,
      "-415": 4083,
      "-30": 4084,
      "▁British": 4085,
      "▁than": 4086,
      "_Centre": 4087,
      "▁3,": 4088,
      "hism": 4089,
      "87": 4090,
      "LA": 4091,
      "emple": 4092,
      "hp": 4093,
      "lations": 4094,
      "oth": 4095,
      "▁S.": 4096,
      "angl": 4097,
      "uslim": 4098,
      "▁war": 4099,
      "▁who": 4100,
      "▁Economic": 4101,
      "monwealth": 4102,
      "▁later": 4103,
      "AAJ": 4104,
      "▁new": 4105,
      "▁tradition": 4106,
      "clu": 4107,
      "athak": 4108,
      "ligious": 4109,
      "2]](https://ta.wikipedia.org/wiki/இந்தியா#cite_note-FOOTNOTE": 4110,
      "6/": 4111,
      "De": 4112,
      "Library": 4113,
      "back": 4114,
      "rar": 4115,
      "ंक": 4116,
      "टे": 4117,
      "धी": 4118,
      "ोन": 4119,
      "ெற்கா": 4120,
      "ௌத்த": 4121,
      "▁ref": 4122,
      "▁tri": 4123,
      "alley": 4124,
      "ந்தமான்": 4125,
      "▁பி": 4126,
      "ப்பை": 4127,
      "ार्": 4128,
      "▁कि": 4129,
      "க்கம்": 4130,
      "த்தர": 4131,
      "த்திர": 4132,
      "life": 4133,
      "▁வை": 4134,
      "▁விரி": 4135,
      "ங்கம்": 4136,
      "adu": 4137,
      "▁நு": 4138,
      "▁ஆண்ட": 4139,
      "▁after": 4140,
      "▁2005": 4141,
      "ird": 4142,
      "sha": 4143,
      "_(இந்தியா)": 4144,
      "▁East": 4145,
      "▁one": 4146,
      "ंगाल": 4147,
      "▁तट": 4148,
      "▁न्या": 4149,
      "ப்_பேரரசு": 4150,
      "▁एवं": 4151,
      "ப்படுகிற": 4152,
      "▁வரலா": 4153,
      "▁சேர்ந்த": 4154,
      "%E0%A4%": 4155,
      "श्मीर": 4156,
      "्यवस्था": 4157,
      "Bl": 4158,
      "Provision": 4159,
      "_n": 4160,
      "adi": 4161,
      "ite": 4162,
      "ner": 4163,
      "page": 4164,
      "vid": 4165,
      "vol": 4166,
      "▁res": 4167,
      "city": 4168,
      "](https://en.wikipedia.org/wiki/O": 4169,
      "atar": 4170,
      "▁sup": 4171,
      "road": 4172,
      "▁Modern": 4173,
      "llchin": 4174,
      "▁\"Doi": 4175,
      "usiness": 4176,
      "Fisher2018": 4177,
      "oi_(identifier)": 4178,
      "ociet": 4179,
      "uropean": 4180,
      "fric": 4181,
      "pl": 4182,
      "▁ru": 4183,
      "cis": 4184,
      "▁M.": 4185,
      "upt": 4186,
      "ountry": 4187,
      "ortal": 4188,
      "▁states": 4189,
      "ehru": 4190,
      "%7c": 4191,
      "ujarat": 4192,
      "ustrali": 4193,
      ".n": 4194,
      "75": 4195,
      "Re": 4196,
      "Wolpert": 4197,
      "_వ": 4198,
      "be": 4199,
      "mu": 4200,
      "yan": 4201,
      "ल\")": 4202,
      "सद": 4203,
      "பெ": 4204,
      "மே": 4205,
      "ாட்சி": 4206,
      "ூக": 4207,
      "గర": 4208,
      "టక": 4209,
      "టా": 4210,
      "దార": 4211,
      "నీ": 4212,
      "రో": 4213,
      "సభ": 4214,
      "ెద్ద": 4215,
      "▁j": 4216,
      "▁[I": 4217,
      "▁[e": 4218,
      "▁[न": 4219,
      "▁[இந்தியா": 4220,
      "▁\"द": 4221,
      "▁\"உ": 4222,
      "▁\"సి": 4223,
      "ந்தா": 4224,
      "▁பின்": 4225,
      "tionary": 4226,
      "▁केंद्र": 4227,
      "](https://te.wikipedia.org/wiki/భారత_": 4228,
      "▁கல": 4229,
      "▁part": 4230,
      "▁அடிப்படையில்": 4231,
      "சிந்து": 4232,
      "▁పు": 4233,
      "ற்றி": 4234,
      "▁சா": 4235,
      "्तर": 4236,
      "రాజ్య": 4237,
      "240": 4238,
      "▁కేంద్రపాలిత": 4239,
      "aylor": 4240,
      "ிலான": 4241,
      "▁మా": 4242,
      "भाग": 4243,
      "▁చే": 4244,
      "ము\")": 4245,
      "త్స": 4246,
      "▁number": 4247,
      "ங்களின்": 4248,
      "▁రాజ్య": 4249,
      "▁எண்ணிக்க": 4250,
      "▁two": 4251,
      "వాతంత్ర": 4252,
      "ரியா": 4253,
      "संख्या": 4254,
      "ஞ்சா": 4255,
      "▁దేశాల": 4256,
      "த்திற்கு": 4257,
      "ப்படுகிறது.": 4258,
      "లాదేశ్": 4259,
      "స్తు": 4260,
      "▁अनुसार": 4261,
      "▁సామ్రాజ్యం](https://te.wikipedia.org/wiki/": 4262,
      "ంగ్లాదేశ్": 4263,
      "▁భాషలు": 4264,
      "▁प्रदेश\")": 4265,
      "ారు.": 4266,
      "▁स्थ": 4267,
      "_ప్రా": 4268,
      "▁குறிப்பி": 4269,
      "్రిటి": 4270,
      "▁பேரரசு\")": 4271,
      "▁అధికార": 4272,
      "குடியரசு": 4273,
      "ూర్పు": 4274,
      "ymbol": 4275,
      "కైవు": 4276,
      "-india-": 4277,
      "RL": 4278,
      "_st": 4279,
      "dr": 4280,
      "▁[Indian": 4281,
      "tex": 4282,
      "▁\"I": 4283,
      "ones": 4284,
      "ests": 4285,
      "▁(*": 4286,
      "ise": 4287,
      "-00": 4288,
      "as,": 4289,
      "▁P.": 4290,
      "▁Per": 4291,
      "▁D.": 4292,
      "abad": 4293,
      "ligence": 4294,
      "▁News": 4295,
      "▁Commissioner": 4296,
      "timesofindia.indiatimes.com/india/": 4297,
      "telligence": 4298,
      ".fr": 4299,
      "3TR": 4300,
      "52": 4301,
      "_for": 4302,
      "_with": 4303,
      "ii": 4304,
      "rg": 4305,
      "a.com/": 4306,
      "▁[v": 4307,
      "lia": 4308,
      "▁Ara": 4309,
      "▁India\"),": 4310,
      "rain": 4311,
      "▁[\"The": 4312,
      "▁*[The": 4313,
      ".php": 4314,
      "▁state": 4315,
      "2001),": 4316,
      "artition": 4317,
      "langoff": 4318,
      "3TRt": 4319,
      "1]](https://ta.wikipedia.org/wiki/இந்தியா#cite_note-FOOTNOTE": 4320,
      "3]](https://ta.wikipedia.org/wiki/இந்தியா#cite_note-FOOTNOTE": 4321,
      "Raj": 4322,
      "Rowland": 4323,
      "fo": 4324,
      "if": 4325,
      "iter": 4326,
      "oon": 4327,
      "udi": 4328,
      "एँ": 4329,
      "एस": 4330,
      "खा": 4331,
      "गो": 4332,
      "चे": 4333,
      "लि": 4334,
      "सी": 4335,
      "ैक": 4336,
      "ोड़": 4337,
      "னால்": 4338,
      "வண": 4339,
      "ஷ்": 4340,
      "ுடன்": 4341,
      "▁up": 4342,
      "▁[हिन्द": 4343,
      "▁[ஒக்ஸ்போர்ட்": 4344,
      "▁\"[": 4345,
      "▁\"ஒக்ஸ்போர்ட்": 4346,
      "ியம்": 4347,
      "](https://ta.wikipedia.org/wiki/ஆ": 4348,
      "](https://ta.wikipedia.org/wiki/ஒக்ஸ்போர்ட்": 4349,
      "்டு": 4350,
      "▁பண்ப": 4351,
      "ार्ट": 4352,
      "ised": 4353,
      "▁official": 4354,
      "▁கல்": 4355,
      "ங்கிரசு": 4356,
      "▁मूल": 4357,
      "_of_2011": 4358,
      "ச்சு": 4359,
      "களுக்கு": 4360,
      "विधान": 4361,
      "▁जो": 4362,
      "▁बहु": 4363,
      "▁[978-0-521": 4364,
      "▁सेना": 4365,
      "_Paper": 4366,
      "வாய": 4367,
      "▁*[தி": 4368,
      "லாம்": 4369,
      "_Totals": 4370,
      "ड़ी": 4371,
      "▁\"சிறப்பு:BookSources/978-0-19": 4372,
      "](https://ta.wikipedia.org/wiki/சிறப்பு:BookSources/978-0-19": 4373,
      "opulation_Totals": 4374,
      "osed": 4375,
      "म्बर": 4376,
      "_1_of_2011": 4377,
      "Stein1998),": 4378,
      "▁भू": 4379,
      "▁துணை": 4380,
      "▁பொருட": 4381,
      "▁கோடி": 4382,
      "▁தொகை": 4383,
      "▁பதிப்பகம்](https://ta.wikipedia.org/wiki/ஒக்ஸ்போர்ட்": 4384,
      "▁ஆகியவை": 4385,
      "▁[Archived](https://web.archive.org/web/20": 4386,
      "धिकार": 4387,
      "▁./பகுப்பு:Pages\\_using\\_": 4388,
      "ீவுகள்": 4389,
      "ரசின்": 4390,
      "ென்னி": 4391,
      "க்தி": 4392,
      "्यटन": 4393,
      ".aspx": 4394,
      "al_Population_Totals": 4395,
      "details/": 4396,
      "Provisional_Population_Totals": 4397,
      "Rowland1970": 4398,
      "_Paper_1_of_2011": 4399,
      "▁பதிப்பகம்](https://ta.wikipedia.org/wiki/ஒக்ஸ்போர்ட்_பல்கலைக்கழகப்_பதிப்பகம்": 4400,
      "Provisional_Population_Totals_Paper_1_of_2011": 4401,
      "Provisional_Population_Totals_Paper_1_of_2011_India": 4402,
      ".uk": 4403,
      "C-0": 4404,
      "II": 4405,
      "PC": 4406,
      "gl": 4407,
      "most": 4408,
      "oy": 4409,
      "tin": 4410,
      "wal": 4411,
      "ze": 4412,
      "alli": 4413,
      "2015": 4414,
      "▁(20": 4415,
      "rief": 4416,
      "▁century": 4417,
      "urve": 4418,
      "resent": 4419,
      "duction": 4420,
      "▁northern": 4421,
      "_Com": 4422,
      ".svg/": 4423,
      "lassical": 4424,
      "_Development": 4425,
      ".svg.png": 4426,
      "angladesh": 4427,
      "/s": 4428,
      "82": 4429,
      "_5": 4430,
      "ael": 4431,
      "iri": 4432,
      "▁50": 4433,
      "▁under": 4434,
      "tig": 4435,
      "▁they": 4436,
      "ased": 4437,
      "def": 4438,
      "ance/": 4439,
      "National_In": 4440,
      "ichael": 4441,
      "resident": 4442,
      "inguistic": 4443,
      "ociety": 4444,
      "66": 4445,
      "EO": 4446,
      "MF": 4447,
      "data.": 4448,
      "eg": 4449,
      "nat": 4450,
      "ua": 4451,
      "तिक": 4452,
      "दू": 4453,
      "भू": 4454,
      "श्री": 4455,
      "ीत": 4456,
      "ील": 4457,
      "ண்கள்": 4458,
      "நாட": 4459,
      "ீப": 4460,
      "ைப்ப": 4461,
      "ంజా": 4462,
      "గి": 4463,
      "టీ": 4464,
      "టాన్": 4465,
      "మంత్రి": 4466,
      "లను": 4467,
      "వె": 4468,
      "వరణ": 4469,
      "హదార": 4470,
      "ూచ": 4471,
      "▁హ": 4472,
      "▁hi": 4473,
      "▁ro": 4474,
      "▁భారతదేశ": 4475,
      "▁time": 4476,
      "▁imp": 4477,
      "்தொகை": 4478,
      "ப்பீ": 4479,
      "ould": 4480,
      "க்கால": 4481,
      "్రమ": 4482,
      "▁வளர்ச்சி": 4483,
      "▁people": 4484,
      "▁அறி": 4485,
      "▁அதன்": 4486,
      "▁11": 4487,
      "▁Public": 4488,
      "லைமை": 4489,
      "istrar": 4490,
      "భారతదేశ_": 4491,
      "24)": 4492,
      "களும்": 4493,
      "களாக": 4494,
      "▁కొ": 4495,
      "▁Bi": 4496,
      "மைக்": 4497,
      "▁వ్యా": 4498,
      "नाथ": 4499,
      "_क्षेत्र": 4500,
      "▁మత": 4501,
      "▁మతము": 4502,
      "▁had": 4503,
      "▁முடி": 4504,
      "తావరణ": 4505,
      "నాడు": 4506,
      "asting": 4507,
      "▁ఉంది.": 4508,
      "▁एशिया": 4509,
      "ய்வு": 4510,
      "▁ఇతర": 4511,
      "ాయి": 4512,
      "▁துற": 4513,
      "ణాసియా": 4514,
      "▁अन्य": 4515,
      "2003),": 4516,
      "_For": 4517,
      "▁States": 4518,
      "▁நாடுகளின்": 4519,
      "▁tex": 4520,
      "టెడ్": 4521,
      "▁ఆర్కైవు": 4522,
      "▁రైలు": 4523,
      "భూటాన్": 4524,
      "_సామ్రాజ్యం": 4525,
      "▁வணிக": 4526,
      "](https://ta.wikipedia.org/wiki/தி_": 4527,
      "गुजरात": 4528,
      "వాతంత్ర్య": 4529,
      ",[[": 4530,
      ".org": 4531,
      "2-1": 4532,
      "677": 4533,
      "lam": 4534,
      "y=": 4535,
      "–4": 4536,
      "reat": 4537,
      "etary": 4538,
      "inger": 4539,
      "loy": 4540,
      "ump": 4541,
      "28)": 4542,
      "apit": 4543,
      "olitics": 4544,
      "ship": 4545,
      "avidson": 4546,
      "formatics_Centre": 4547,
      "National_Informatics_Centre": 4548,
      "123": 4549,
      "2-": 4550,
      "Hindi": 4551,
      "c/c": 4552,
      "economic": 4553,
      "tary": 4554,
      "enth": 4555,
      "ouse": 4556,
      "25)": 4557,
      "▁million": 4558,
      "peration": 4559,
      "\"](https://web.archive.org/web/20160": 4560,
      "▁term": 4561,
      ")](https://ta.wikipedia.org/wiki/படிமம்:": 4562,
      "-C": 4563,
      "Pan": 4564,
      "WEO": 4565,
      "_இந்தியா": 4566,
      "अन": 4567,
      "जय": 4568,
      "टक": 4569,
      "पी": 4570,
      "पति": 4571,
      "मह": 4572,
      "रो": 4573,
      "ेस": 4574,
      "கமாக": 4575,
      "டல்": 4576,
      "மலை": 4577,
      "யிர": 4578,
      "ாநில": 4579,
      "ிர்": 4580,
      "ெய": 4581,
      "▁ड": 4582,
      "▁फ": 4583,
      "ttar": 4584,
      "▁[द": 4585,
      "203": 4586,
      "▁படை": 4587,
      "ல்லை": 4588,
      "ப்பின்": 4589,
      "ட்டம்": 4590,
      "-06": 4591,
      "த்தது.[[": 4592,
      "▁காட்ட": 4593,
      "ama": 4594,
      "▁அடி": 4595,
      "▁நா": 4596,
      "▁நடு": 4597,
      "▁many": 4598,
      "267": 4599,
      "िया\")": 4600,
      "archive.org/details/": 4601,
      "ந்துள்ளது.": 4602,
      "▁गण": 4603,
      "ற்பட்ட": 4604,
      "_in_India?action=edit&redlink=1": 4605,
      "म्म": 4606,
      "டியா": 4607,
      "-108": 4608,
      "-107-1": 4609,
      "ी_भाषा": 4610,
      "ுள்ளது.": 4611,
      "ovement": 4612,
      "சியா\")": 4613,
      "▁2,": 4614,
      "▁நடத்த": 4615,
      "▁பொதுத்": 4616,
      "▁உயிரி": 4617,
      "वंश": 4618,
      "▁जाता": 4619,
      "▁वर्ष": 4620,
      "▁குடியரசு": 4621,
      "ैदान": 4622,
      "▁அரசியல்": 4623,
      "तंत्रता": 4624,
      "वेब": 4625,
      "ricket": 4626,
      "▁பெரும்பால": 4627,
      "▁साम्राज्य": 4628,
      "ள்கை": 4629,
      "द्योगिक": 4630,
      "▁பயன்ப": 4631,
      "▁கிராம": 4632,
      "3TRtDwAAQBAJ&pg=PA": 4633,
      "\",": 4634,
      "-B": 4635,
      "9–": 4636,
      "ele": 4637,
      "way": 4638,
      "▁Union": 4639,
      "208": 4640,
      "alore": 4641,
      "omas": 4642,
      "astern": 4643,
      "▁2019.": 4644,
      "angalore": 4645,
      "urn": 4646,
      "istan": 4647,
      "266": 4648,
      "▁Budd": 4649,
      "▁group": 4650,
      "ffer": 4651,
      "▁2021.": 4652,
      "rowth": 4653,
      "countries_by": 4654,
      "aranth": 4655,
      "0&": 4656,
      "226": 4657,
      "Ag": 4658,
      "St": 4659,
      "Tritsch": 4660,
      "_11": 4661,
      "af": 4662,
      "b)": 4663,
      "b/": 4664,
      "ealth": 4665,
      "owe": 4666,
      "work": 4667,
      "enn": 4668,
      "omin": 4669,
      "▁Affairs": 4670,
      "ilk": 4671,
      "▁General": 4672,
      "▁Language": 4673,
      "▁2011.\n": 4674,
      "auto": 4675,
      "emale": 4676,
      "▁territories": 4677,
      ".gov.in/": 4678,
      "garh": 4679,
      "▁became": 4680,
      "urvey": 4681,
      "3–": 4682,
      "AG": 4683,
      "PK:": 4684,
      "_சு": 4685,
      "_13": 4686,
      "_2011": 4687,
      "casting": 4688,
      "map": 4689,
      "war": 4690,
      "पे": 4691,
      "मंत्र": 4692,
      "रवरी": 4693,
      "िज़": 4694,
      "ेट": 4695,
      "பர்": 4696,
      "யோ": 4697,
      "ரே": 4698,
      "ரம்": 4699,
      "ரசிய": 4700,
      "ంశ": 4701,
      "ఆర్": 4702,
      "ఉత్తర": 4703,
      "ఒడి": 4704,
      "కీయ": 4705,
      "గలు": 4706,
      "చు": 4707,
      "జరా": 4708,
      "తూర్పు": 4709,
      "భు": 4710,
      "మన్": 4711,
      "యి": 4712,
      "లస": 4713,
      "ీన": 4714,
      "ేక": 4715,
      "▁డ": 4716,
      "▁జాబితా": 4717,
      "a.jpg": 4718,
      "ediff": 4719,
      "▁[इ": 4720,
      "▁[భారతదేశ": 4721,
      "▁[पु": 4722,
      "▁\"इ": 4723,
      "▁\"हिन्द": 4724,
      "arge": 4725,
      "▁பழ": 4726,
      "the-": 4727,
      "க்கலை": 4728,
      "▁மீ": 4729,
      "▁இச": 4730,
      "▁मु": 4731,
      "change": 4732,
      "▁పట్ట": 4733,
      "▁some": 4734,
      "ாகி": 4735,
      "ర్\")": 4736,
      "▁உடைய": 4737,
      "▁ஆஃப்": 4738,
      "திவா": 4739,
      "▁Republic": 4740,
      "▁Research": 4741,
      "▁music": 4742,
      "▁**జాతీయ": 4743,
      "నిక": 4744,
      "विज्ञान": 4745,
      "ाला": 4746,
      "க்குப்": 4747,
      "▁Government": 4748,
      "ంగ్రె": 4749,
      "▁సభ": 4750,
      "తాబ్": 4751,
      "-53": 4752,
      "டைந்த": 4753,
      "▁ప్రపంచ": 4754,
      "▁ప్రభు": 4755,
      "ணிம": 4756,
      "எண்ணிம": 4757,
      "▁dance": 4758,
      "▁ఆసియా": 4759,
      "ड़े": 4760,
      "▁\"சிறப்பு:BookSources/978-81": 4761,
      "](https://ta.wikipedia.org/wiki/சிறப்பு:BookSources/978-81": 4762,
      "▁இதுவாக": 4763,
      "▁उत्तर": 4764,
      "ய்ய": 4765,
      "▁[2](https://ta.wikipedia.org/wiki/இந்தியா#cite_ref-": 4766,
      "మ్రాజ్య": 4767,
      "▁[1](https://ta.wikipedia.org/wiki/இந்தியா#cite_ref-": 4768,
      "க்கிண்ண": 4769,
      "గుజరా": 4770,
      "▁1994": 4771,
      "onstituent": 4772,
      "▁సామ్రాజ్యం\")": 4773,
      "▁மேற்கு": 4774,
      "▁ஓவிய": 4775,
      "द्यान": 4776,
      "rancis": 4777,
      "త్యేక": 4778,
      "రాష్ట్రపతి": 4779,
      "ప్ప": 4780,
      "▁உயர்": 4781,
      "▁కాశ్మీ": 4782,
      "▁రాజవంశం": 4783,
      "riculture": 4784,
      "▁இரண்டா": 4785,
      "र्थिक": 4786,
      "▁చెంద": 4787,
      "▁ఆర్ధిక": 4788,
      "▁समय": 4789,
      "%20%20%20%20": 4790,
      "▁స్థాన": 4791,
      "▁இராணுவ": 4792,
      "తమిళనాడు": 4793,
      "▁அதிகரித்து": 4794,
      "ప్రధానమంత్రి": 4795,
      "South_Asia": 4796,
      "यालय": 4797,
      "గణతంత్ర": 4798,
      "▁క్రీడ": 4799,
      "▁ఉన్నాయి.": 4800,
      "worldbank.org/": 4801,
      "tecture": 4802,
      "ఆఫ్ఘ": 4803,
      "శ్రీలంక": 4804,
      "షియా": 4805,
      "న్‌ఫ": 4806,
      "నేపాల్": 4807,
      "ெற்காசிய": 4808,
      "roadcasting": 4809,
      "வணச்": 4810,
      "తాబ్ద": 4811,
      "2).": 4812,
      "3.\n": 4813,
      "4,": 4814,
      "▁he": 4815,
      "ins": 4816,
      "arly": 4817,
      "ofile": 4818,
      "▁Raj": 4819,
      "166": 4820,
      "▁[Singh": 4821,
      "ultiple": 4822,
      "National_Informatics_Centre2005": 4823,
      "Report": 4824,
      "ahar": 4825,
      "m.nic.in/": 4826,
      "ncl": 4827,
      "ving": 4828,
      "▁history": 4829,
      "tte": 4830,
      "](https://en.wikipedia.org/wiki/W": 4831,
      "them": 4832,
      "etrag": 4833,
      "among": 4834,
      "003": 4835,
      "217": 4836,
      "indian": 4837,
      "▁Mon": 4838,
      "ews": 4839,
      "ffice": 4840,
      "▁Press.": 4841,
      "ongress2004": 4842,
      "nclm.nic.in/": 4843,
      "-on-": 4844,
      "2]](https://ta.wikipedia.org/wiki/இந்தியா#cite_note-": 4845,
      "Con": 4846,
      "Ministry_of_": 4847,
      "_0": 4848,
      "_ட": 4849,
      "britannic": 4850,
      "cent": 4851,
      "moc": 4852,
      "olog": 4853,
      "pend": 4854,
      "rd": 4855,
      "yer": 4856,
      "डी": 4857,
      "डु": 4858,
      "णि": 4859,
      "त्य": 4860,
      "धु": 4861,
      "लोक": 4862,
      "ஆக": 4863,
      "ங்": 4864,
      "டன": 4865,
      "டும்ப": 4866,
      "நகர": 4867,
      "மிய": 4868,
      "ளை": 4869,
      "ளிய": 4870,
      "ழை": 4871,
      "வியல்": 4872,
      "வும்,": 4873,
      "வர்கள": 4874,
      "▁छ": 4875,
      "▁[United": 4876,
      "▁\"न": 4877,
      "▁\"கு": 4878,
      "▁\"सं": 4879,
      "oni": 4880,
      "ந்த்": 4881,
      "arlo": 4882,
      "▁மொழ": 4883,
      "▁கீ": 4884,
      "▁கட்சி": 4885,
      "▁தி": 4886,
      "▁திரு": 4887,
      "achin": 4888,
      "▁அனைத்து": 4889,
      "ating": 4890,
      "▁India\")\n": 4891,
      "▁मा": 4892,
      "▁spe": 4893,
      "டுப்பாட்ட": 4894,
      "25.": 4895,
      "pect": 4896,
      "olk": 4897,
      "नाव": 4898,
      "▁election": 4899,
      "▁द्वार": 4900,
      "▁முக்கிய": 4901,
      "▁தொடர்ச்சி": 4902,
      "▁\"இந்தியக்": 4903,
      "माज": 4904,
      "▁Press](https://ta.wikipedia.org/wiki/": 4905,
      "▁Press\"),": 4906,
      "overty": 4907,
      "oreign": 4908,
      "904-7": 4909,
      "ी](https://hi.wikipedia.org/wiki/अ": 4910,
      "_அடிப்படையில்": 4911,
      "atis": 4912,
      "india-gl": 4913,
      "ப்படுகின்ற": 4914,
      "...": 4915,
      "▁நிலையில்": 4916,
      "सेना": 4917,
      "▁பொதுவாக": 4918,
      "asia/": 4919,
      "தாகும்.": 4920,
      "▁चु": 4921,
      "▁हुई": 4922,
      "-80904-7": 4923,
      "▁ஒன்றாக": 4924,
      "▁2006](https://ta.wikipedia.org/wiki/இந்தியா#CITEREFMetcalfMetcalf2006),": 4925,
      "மிழ்நாடு": 4926,
      "शासित": 4927,
      "त्पाद": 4928,
      "britannica.com/": 4929,
      "india-glance/": 4930,
      "British": 4931,
      "ES": 4932,
      "Ethnologue": 4933,
      "IJ": 4934,
      "IMF": 4935,
      "NA": 4936,
      "_18": 4937,
      "ae": 4938,
      "fl": 4939,
      "known": 4940,
      "ning": 4941,
      "ser": 4942,
      "▁\"19": 4943,
      "en/": 4944,
      "an,": 4945,
      "20)": 4946,
      "▁(2014": 4947,
      "▁(1,": 4948,
      "ams": 4949,
      "loc": 4950,
      "▁sp": 4951,
      "▁caste": 4952,
      "union": 4953,
      "▁land": 4954,
      "▁Press,": 4955,
      "ahal": 4956,
      "ndaman": 4957,
      "ront": 4958,
      "actbook": 4959,
      ".html)": 4960,
      "ographic": 4961,
      "censusindia.gov.in/2011census/": 4962,
      "natak": 4963,
      "4-3": 4964,
      "QAAQBAJ&pg=PA": 4965,
      "_on": 4966,
      "men": 4967,
      "▁Qu": 4968,
      "theast": 4969,
      "▁sh": 4970,
      "▁Data": 4971,
      "1162": 4972,
      "sey": 4973,
      "▁War": 4974,
      "PPP": 4975,
      "ivil": 4976,
      "ographical": 4977,
      ".uk/": 4978,
      "-in": 4979,
      "129": 4980,
      "313": 4981,
      "]]": 4982,
      "_ब": 4983,
      "_en": 4984,
      "_ప్రదేశ్": 4985,
      "br": 4986,
      "med": 4987,
      "mun": 4988,
      "mill": 4989,
      "ईसा": 4990,
      "कल": 4991,
      "खाना": 4992,
      "तु": 4993,
      "नगर": 4994,
      "ल्": 4995,
      "ोम": 4996,
      "।\n": 4997,
      "ர்த": 4998,
      "லமைப்பு": 4999,
      "ாண்டு": 5000,
      "ுடைய": 5001,
      "ென்": 5002,
      "ం,": 5003,
      "ఉప": 5004,
      "కొ": 5005,
      "కేంద్రపాలిత": 5006,
      "జె": 5007,
      "ఢ్": 5008,
      "ది.": 5009,
      "నాల": 5010,
      "లే": 5011,
      "ళు": 5012,
      "ౌద్ధ": 5013,
      "▁ऊ": 5014,
      "▁భా": 5015,
      "▁[వి": 5016,
      "▁[உலக": 5017,
      "2024": 5018,
      "read": 5019,
      "ப்பிய": 5020,
      "](https://hi.wikipedia.org/wiki/इ": 5021,
      "▁மைய": 5022,
      "▁सु": 5023,
      "acmill": 5024,
      "-135": 5025,
      "▁வங்கி": 5026,
      "▁peri": 5027,
      "ాలీ": 5028,
      "atus": 5029,
      "ర్చ": 5030,
      "ico": 5031,
      "cean": 5032,
      "vers": 5033,
      "र्दू": 5034,
      "ண்மை": 5035,
      "▁modern": 5036,
      "▁अग": 5037,
      "குதி": 5038,
      "▁Ge": 5039,
      "operation": 5040,
      "▁N.": 5041,
      "▁दिया": 5042,
      "170": 5043,
      "▁बढ़": 5044,
      "▁மு.": 5045,
      "▁[South": 5046,
      "–సా.శ.18": 5047,
      "▁అత్య": 5048,
      "ம்பு": 5049,
      "▁உள்ளது.[[": 5050,
      "ாளர்": 5051,
      "▁ఆధ": 5052,
      "మాఖ్య": 5053,
      "వాణా": 5054,
      "ంటి": 5055,
      "▁[2](https://en.wikipedia.org/wiki/India#cite_ref-FOOTNOTE": 5056,
      "2007),": 5057,
      "▁சமூக": 5058,
      "▁[1](https://en.wikipedia.org/wiki/India#cite_ref-FOOTNOTE": 5059,
      "▁దేశం": 5060,
      "த்தியில்": 5061,
      "](https://en.wikipedia.org/wiki/South": 5062,
      "राष्ट्रपति": 5063,
      "డ్డ": 5064,
      "▁జనాభా": 5065,
      "▁[Dyson": 5066,
      "▁அரசா": 5067,
      "ச்சகம்": 5068,
      "हिन्दी": 5069,
      "దక్షిణాసియా": 5070,
      "▁\"அமெரிக்க": 5071,
      "्रां": 5072,
      "▁గల": 5073,
      "](https://ta.wikipedia.org/wiki/அமெரிக்க": 5074,
      "▁భారతదేశంలో": 5075,
      "ంగ్లీ": 5076,
      "యునై": 5077,
      "ష్ణ": 5078,
      "_చరిత్ర?action=edit&redlink=1": 5079,
      "▁2018](https://ta.wikipedia.org/wiki/இந்தியா#CITEREF": 5080,
      "▁हुआ": 5081,
      "do-A": 5082,
      "हासागर": 5083,
      "फ़रवरी": 5084,
      "▁రాష్ట్రాలు,": 5085,
      "▁Rothermund": 5086,
      "_మతము": 5087,
      "ष्ण": 5088,
      "▁இதில்": 5089,
      "▁Plate": 5090,
      "▁మొద": 5091,
      "▁[doi](https://ta.wikipedia.org/wiki/": 5092,
      "ंबई": 5093,
      "▁लिए": 5094,
      "▁உணவு": 5095,
      "▁विकास": 5096,
      "▁చెయ్యబడింది.": 5097,
      "_அடிப்படையில்_நாடு": 5098,
      "యునైటెడ్": 5099,
      "-with": 5100,
      "9,": 5101,
      "IB": 5102,
      "Se": 5103,
      "_26": 5104,
      "ji": 5105,
      "my": 5106,
      "ras": 5107,
      "rdu": 5108,
      "▁/": 5109,
      "▁ra": 5110,
      "dian": 5111,
      "arri": 5112,
      "cip": 5113,
      "▁(ed.": 5114,
      "▁(a)": 5115,
      "▁(b)": 5116,
      "▁A.": 5117,
      "▁Stu": 5118,
      "local": 5119,
      "-3)": 5120,
      "22-9": 5121,
      "18)": 5122,
      "▁International": 5123,
      "34)": 5124,
      "ultural": 5125,
      "▁Hinduism": 5126,
      "ervation": 5127,
      "ichell": 5128,
      "▁York": 5129,
      "ollingham": 5130,
      ".aspx?": 5131,
      "etraglia": 5132,
      "130": 5133,
      "94": 5134,
      "AS": 5135,
      "Pakistan": 5136,
      "_17": 5137,
      "ced": 5138,
      "her": 5139,
      "vent": 5140,
      "▁[4": 5141,
      "ality": 5142,
      "▁2014.": 5143,
      "▁such": 5144,
      "21)": 5145,
      "ussia": 5146,
      "▁Man": 5147,
      "23)": 5148,
      "▁min": 5149,
      "▁Be": 5150,
      "imalay": 5151,
      "_Temple": 5152,
      "▁[Ministry": 5153,
      "▁disp": 5154,
      "worldcat": 5155,
      "▁[Routledge": 5156,
      "▁\"Routledge": 5157,
      "▁2006](https://en.wikipedia.org/wiki/India#CITEREF": 5158,
      "Hindustan": 5159,
      "_from": 5160,
      "esert": 5161,
      "Library_of_C": 5162,
      "ymbols": 5163,
      "rgani": 5164,
      "6)\n": 5165,
      "7]](https://ta.wikipedia.org/wiki/இந்தியா#cite_note-FOOTNOTE": 5166,
      "95": 5167,
      "9]](https://ta.wikipedia.org/wiki/இந்தியா#cite_note-": 5168,
      "Gua": 5169,
      "JIJ": 5170,
      "Zva": 5171,
      "_2010": 5172,
      "bh": 5173,
      "can": 5174,
      "gram": 5175,
      "lli": 5176,
      "lood": 5177,
      "main": 5178,
      "multiple": 5179,
      "var": 5180,
      "क्स": 5181,
      "न](https://hi.wikipedia.org/wiki/": 5182,
      "योग": 5183,
      "वै": 5184,
      "स्ट": 5185,
      "ूर्": 5186,
      "ृति": 5187,
      "ண்கள": 5188,
      "லில்": 5189,
      "லும்": 5190,
      "ளவில்": 5191,
      "ளஞ்சிய": 5192,
      "வல": 5193,
      "வானது": 5194,
      "வர்கள்": 5195,
      "ாதுகாப்பு": 5196,
      "ிக்கா": 5197,
      "ீடு": 5198,
      "tter": 5199,
      "▁[आ": 5200,
      "▁[ज": 5201,
      "▁[கு": 5202,
      "teenth": 5203,
      "▁\"आ": 5204,
      "▁\"உலக": 5205,
      "ியான": 5206,
      "reet": 5207,
      "](https://ta.wikipedia.org/wiki/உ": 5208,
      "இந்தி": 5209,
      "▁பூ": 5210,
      "▁பேர": 5211,
      "ारी": 5212,
      "ार्च": 5213,
      "rim": 5214,
      "ed\\_im": 5215,
      "▁தனி": 5216,
      "▁தேர்தல்": 5217,
      "-16": 5218,
      "▁இன": 5219,
      "0000": 5220,
      "▁சோ": 5221,
      "ாட்டின்": 5222,
      "ictionary": 5223,
      "=1&": 5224,
      "▁உறு": 5225,
      "caled\\_im": 5226,
      "▁mi": 5227,
      "Books": 5228,
      "சுக": 5229,
      "िक्": 5230,
      "age\\_with\\_": 5231,
      "▁என": 5232,
      "▁जून": 5233,
      "க்குக்": 5234,
      "▁दे": 5235,
      "▁दिस": 5236,
      "राजस्थान": 5237,
      "▁long": 5238,
      "▁large": 5239,
      "aksh": 5240,
      "ages\n": 5241,
      "லைக்களஞ்சிய": 5242,
      "नेपाल": 5243,
      "त्तरा": 5244,
      "▁area": 5245,
      "जाति": 5246,
      "▁exp": 5247,
      "Singh2009),": 5248,
      "▁क्षेत्र\")": 5249,
      "धानमंत्र": 5250,
      "▁மொழி\")": 5251,
      "national-language": 5252,
      "▁நீதி": 5253,
      "▁நாடுகள்": 5254,
      "्रीका": 5255,
      "▁தொடங்க": 5256,
      "ிரித்தானிக்கா": 5257,
      "▁கொண்டிருந்த": 5258,
      "▁பிறகு": 5259,
      "▁இலக்கிய": 5260,
      "गणना": 5261,
      "ainting": 5262,
      "▁खाना\")": 5263,
      "▁निर्": 5264,
      "\\_scaled\\_im": 5265,
      "\\_image\\_with\\_": 5266,
      "ughal": 5267,
      "▁ed.),": 5268,
      "▁world's": 5269,
      "னாமி": 5270,
      "▁estim": 5271,
      "माणु": 5272,
      ".svg.png)": 5273,
      "म्मू": 5274,
      "auto\\_scaled\\_im": 5275,
      "acmillan": 5276,
      "GuaJIJ": 5277,
      "ZvaGuaJIJ": 5278,
      "gramme": 5279,
      "multiple\\_image\\_with\\_": 5280,
      "▁दिसम्बर": 5281,
      "லைக்களஞ்சியம்": 5282,
      "auto\\_scaled\\_images\n": 5283,
      "ZvaGuaJIJgo": 5284,
      "multiple\\_image\\_with\\_auto\\_scaled\\_images\n": 5285,
      ".com": 5286,
      "/g": 5287,
      "318": 5288,
      "338": 5289,
      "Davidson": 5290,
      "Press": 5291,
      "Uttar": 5292,
      "Vu": 5293,
      "ZVu": 5294,
      "_&": 5295,
      "aul": 5296,
      "ball": 5297,
      "hol": 5298,
      "kZVu": 5299,
      "ration": 5300,
      "rect": 5301,
      "than": 5302,
      "isl": 5303,
      "oot": 5304,
      "▁Assembly": 5305,
      "fir": 5306,
      "apan": 5307,
      "▁From": 5308,
      "_Sh": 5309,
      "▁north": 5310,
      "rust": 5311,
      "▁[2](https://en.wikipedia.org/wiki/India#cite_ref-": 5312,
      "▁[1](https://en.wikipedia.org/wiki/India#cite_ref-": 5313,
      "orities": 5314,
      "2014-p": 5315,
      "aking": 5316,
      "▁2010](https://en.wikipedia.org/wiki/India#CITEREF": 5317,
      "code": 5318,
      "▁Reg": 5319,
      "ondon": 5320,
      "document": 5321,
      "EXT": 5322,
      "Davidson2014-p": 5323,
      "%3": 5324,
      "0)": 5325,
      "2)\n": 5326,
      "2-6": 5327,
      "7%": 5328,
      "9/": 5329,
      "C).": 5330,
      "Census": 5331,
      "round": 5332,
      "west": 5333,
      "orical": 5334,
      "▁[Kulke": 5335,
      "▁\"United": 5336,
      "reme": 5337,
      "hic": 5338,
      "\\_articles": 5339,
      "▁inclu": 5340,
      "253": 5341,
      "▁Ex": 5342,
      "ubcontinent": 5343,
      "_Affairs": 5344,
      "▁Kashmir": 5345,
      "▁V.": 5346,
      "ikh": 5347,
      "▁\"Economy": 5348,
      "Dyson2018),": 5349,
      "cms).": 5350,
      "_at_the": 5351,
      "▁period": 5352,
      "Library_of_Congress2004": 5353,
      "/ark": 5354,
      "2%": 5355,
      "5%": 5356,
      "6]](https://ta.wikipedia.org/wiki/இந்தியா#cite_note-FOOTNOTE": 5357,
      "Collingham": 5358,
      "Taj": 5359,
      "_प": 5360,
      "_న": 5361,
      "ao": 5362,
      "f.fr": 5363,
      "hand": 5364,
      "ures": 5365,
      "ym": 5366,
      "टी": 5367,
      "द्वीप": 5368,
      "वी": 5369,
      "हीं": 5370,
      "िज": 5371,
      "िन्": 5372,
      "ैल": 5373,
      "ैंड": 5374,
      "டக்கலை": 5375,
      "மண": 5376,
      "யி": 5377,
      "யில்": 5378,
      "ல்த": 5379,
      "ழல்": 5380,
      "வீன": 5381,
      "ஸ்ட்": 5382,
      "ின": 5383,
      "ఖండ": 5384,
      "గం": 5385,
      "టిక": 5386,
      "డే": 5387,
      "ద్య": 5388,
      "మార్": 5389,
      "మాలయ": 5390,
      "లలో": 5391,
      "లకు": 5392,
      "ళ్": 5393,
      "వ](https://te.wikipedia.org/wiki/": 5394,
      "ానికి": 5395,
      "ాళు": 5396,
      "ీర్": 5397,
      "▁భ": 5398,
      "▁యు": 5399,
      "▁फ़रवरी": 5400,
      ":/121": 5401,
      "▁\"వి": 5402,
      "](https://ta.wikipedia.org/wiki/கு": 5403,
      "ம்\"),": 5404,
      "India-": 5405,
      "tions": 5406,
      "ப்பாக": 5407,
      "ப்பானது": 5408,
      "issi": 5409,
      "](https://hi.wikipedia.org/wiki/सं": 5410,
      "ட்டிய": 5411,
      "த்தா": 5412,
      "▁திரைப்படத்துறை": 5413,
      "ammu": 5414,
      "▁வங்காள": 5415,
      "▁Cons": 5416,
      "ాలో": 5417,
      "▁அட": 5418,
      "▁அரு": 5419,
      "▁அவை": 5420,
      "▁அணு": 5421,
      "▁India\"](https://web.archive.org/web/201": 5422,
      "▁मार्च": 5423,
      "्यता": 5424,
      "adhy": 5425,
      "▁நேர": 5426,
      "ource": 5427,
      "స్వ": 5428,
      "స్లా": 5429,
      "▁पह": 5430,
      "▁पार्ट": 5431,
      "▁పాల": 5432,
      "ull": 5433,
      "▁சந்தை": 5434,
      "ாகரி": 5435,
      "▁both": 5436,
      "న్\")": 5437,
      "▁ஆயு": 5438,
      "டுத்து": 5439,
      "र्स": 5440,
      "र्जा": 5441,
      "](https://hi.wikipedia.org/wiki/भारतीय": 5442,
      "ண்டல": 5443,
      "லைவன": 5444,
      "10)": 5445,
      "105": 5446,
      "சுலி": 5447,
      "289": 5448,
      "களானவை": 5449,
      "▁కార": 5450,
      "▁కలి": 5451,
      "bert": 5452,
      "ాలు?action=edit&redlink=1": 5453,
      "505": 5454,
      "రిహ": 5455,
      "రికత": 5456,
      "క్నాల": 5457,
      "](https://ta.wikipedia.org/wiki/பு": 5458,
      "ంది.\n": 5459,
      "నిమా": 5460,
      "▁Journal": 5461,
      "▁John": 5462,
      "▁H.": 5463,
      "▁religion": 5464,
      "▁[\"A": 5465,
      "▁[\"P": 5466,
      "2905": 5467,
      "▁సంగీతం": 5468,
      "त्रि": 5469,
      "▁\"பு": 5470,
      "407": 5471,
      "ryan": 5472,
      "▁बना": 5473,
      "▁చి": 5474,
      "ங்களும்": 5475,
      "ులు\"),": 5476,
      "–సా.శ.13": 5477,
      "▁అయ": 5478,
      "▁वा": 5479,
      "▁ప్రధాన": 5480,
      "லால்": 5481,
      "48/c": 5482,
      "ிருத": 5483,
      "▁உள்ளன.": 5484,
      "ప్రదాయ": 5485,
      "ప్రత్యేక": 5486,
      "ద్వీ": 5487,
      "ப்_பொது": 5488,
      "▁ఉప": 5489,
      "▁போன்ற": 5490,
      "▁[பு": 5491,
      "▁రె": 5492,
      "ற்போ": 5493,
      "▁\"சிறப்பு:BookSources/978-0-": 5494,
      "](https://ta.wikipedia.org/wiki/சிறப்பு:BookSources/978-0-": 5495,
      "న్నడ": 5496,
      "▁संविधान": 5497,
      "ంటు": 5498,
      "▁Ved": 5499,
      "33-7": 5500,
      "▁செய்ய": 5501,
      "र्वत": 5502,
      "ंडिया": 5503,
      "▁దేశంలో": 5504,
      "पात": 5505,
      "ாடாளுமன்ற": 5506,
      "▁காங்கிரசு": 5507,
      "కాశ్మీ": 5508,
      "ंग्रेस": 5509,
      "_ஆறு": 5510,
      "ంధు": 5511,
      "వర్గం:Harv": 5512,
      "ద్ధం": 5513,
      "ద్ధి": 5514,
      "pringer": 5515,
      "ాల్దీవ": 5516,
      "india.gov.in/india-glance/": 5517,
      "చ్చే": 5518,
      "దక్షిణ_": 5519,
      "](https://books.google.com/books?id=3TRtDwAAQBAJ&pg=PA": 5520,
      "▁இடையில்": 5521,
      "▁కాంగ్రె": 5522,
      "Hinduism": 5523,
      "KulkeRothermund200": 5524,
      "ography": 5525,
      "स्कृति": 5526,
      "టెక్నాల": 5527,
      "హిమాలయ": 5528,
      "▁கடற்க": 5529,
      ":EditPage/మూస:": 5530,
      "டப்பட்டது.": 5531,
      "racy": 5532,
      "▁లే": 5533,
      "త్తరా": 5534,
      "నాగరికత": 5535,
      "▁ஆற்றல்": 5536,
      "▁வீத": 5537,
      "క్కువ": 5538,
      "sites/": 5539,
      "▁நூற்றாண்ட": 5540,
      "▁நூற்றாண்டு": 5541,
      "▁1998](https://ta.wikipedia.org/wiki/இந்தியா#CITEREF": 5542,
      "ங்கிலம்": 5543,
      "வார்ப்புரு:Navbox": 5544,
      "oint": 5545,
      "క్‌సభ": 5546,
      "▁శాస్త్ర": 5547,
      "▁हिन्दी": 5548,
      "ேபாள": 5549,
      "▁शासन": 5550,
      ",NGDP": 5551,
      "bnf.fr": 5552,
      "▁थी": 5553,
      "Template:": 5554,
      "-780": 5555,
      "ెలుగు": 5556,
      "-882905": 5557,
      "▁వచ్చింది.": 5558,
      "_ప్రాంత": 5559,
      "▁./பகுப்பு:Pages\\_using\\_multiple\\_image\\_with\\_auto\\_scaled\\_images\n": 5560,
      "-107-11162": 5561,
      "वेबैक": 5562,
      "▁द्वारा": 5563,
      "ర్చ:": 5564,
      "/ark:/121": 5565,
      "ాళుక్య": 5566,
      "48/cb": 5567,
      "ప్రత్యేక:EditPage/మూస:": 5568,
      "టెక్నాలజీ": 5569,
      "bnf.fr/ark:/121": 5570,
      "-882905-8": 5571,
      "-107-11162-2": 5572,
      "bnf.fr/ark:/12148/cb": 5573,
      "\"[[": 5574,
      "-no": 5575,
      "-27": 5576,
      "2-4": 5577,
      "350": 5578,
      "7.\n": 5579,
      "MAAJ": 5580,
      "lag": 5581,
      "public": 5582,
      "tice": 5583,
      "arb": 5584,
      "esti": 5585,
      "ooperation": 5586,
      "rip": 5587,
      "▁south": 5588,
      "▁since": 5589,
      "ular": 5590,
      "rop": 5591,
      "ISO": 5592,
      "▁Bank": 5593,
      "▁rec": 5594,
      "tures": 5595,
      "AAMAAJ": 5596,
      "▁Official": 5597,
      "harm": 5598,
      ".gov/": 5599,
      "cator": 5600,
      "8/8": 5601,
      "dependence": 5602,
      "CS1\\_": 5603,
      "cyclo": 5604,
      "rganization": 5605,
      "-se": 5606,
      ".IN": 5607,
      "/files/": 5608,
      "219": 5609,
      "63": 5610,
      "Col": 5611,
      "Un": 5612,
      "ns": 5613,
      "po": 5614,
      "win": 5615,
      "▁[India": 5616,
      "tered": 5617,
      "\")[[": 5618,
      "arnatak": 5619,
      "cit": 5620,
      "▁them": 5621,
      "ages/": 5622,
      "▁Science": 5623,
      "▁summit\")": 5624,
      "▁classical": 5625,
      "pec": 5626,
      "28.": 5627,
      "▁GDP": 5628,
      "*](https://web.archive.org/web/201": 5629,
      "pecial:S": 5630,
      "▁name": 5631,
      "_Cor": 5632,
      "▁general": 5633,
      "ankar": 5634,
      "▁\"Special:BookSources/978-0-19": 5635,
      "](Special:BookSources/978-0-19": 5636,
      "rough": 5637,
      "▁Chand": 5638,
      "earch/India": 5639,
      "ports": 5640,
      "business/": 5641,
      "▁Act,": 5642,
      "WEO.IN": 5643,
      "IMFWEO.IN": 5644,
      "ZvaGuaJIJgoC&pg=PA": 5645,
      "pecial:Search/India": 5646,
      ".ni": 5647,
      "7-0": 5648,
      "B0%": 5649,
      "Empire": 5650,
      "Pal": 5651,
      "_न": 5652,
      "_வி": 5653,
      "aus": 5654,
      "dy": 5655,
      "mal": 5656,
      "nam": 5657,
      "slam": 5658,
      "yam": 5659,
      "ंट": 5660,
      "खंड": 5661,
      "खण्ड": 5662,
      "गोल": 5663,
      "धि": 5664,
      "रू": 5665,
      "रेल": 5666,
      "व्यवस्था": 5667,
      "शीन": 5668,
      "ुरु": 5669,
      "ुंबई": 5670,
      "ौर": 5671,
      "ौद्ध": 5672,
      "ौद्योगिक": 5673,
      "ஒடி": 5674,
      "சே": 5675,
      "தலை": 5676,
      "ரூபாய்": 5677,
      "ீக்கிய": 5678,
      "ீதிய": 5679,
      "▁या": 5680,
      "▁சிற": 5681,
      "▁35": 5682,
      "▁46": 5683,
      "▁vi": 5684,
      "▁among": 5685,
      "dies": 5686,
      "▁[கா": 5687,
      "](https://ta.wikipedia.org/wiki/B": 5688,
      "ன்ஸ்": 5689,
      "▁பள்ள": 5690,
      "ல்வ": 5691,
      "▁(2018),": 5692,
      "க்கான": 5693,
      "्रम": 5694,
      "▁there": 5695,
      "த்தக்க": 5696,
      "▁கி": 5697,
      "▁கண்ட": 5698,
      "ரும்": 5699,
      "▁संग": 5700,
      "ில்லிய": 5701,
      "▁இற": 5702,
      "▁இவ்": 5703,
      "▁அன்று": 5704,
      "▁அமெரிக்க": 5705,
      "▁मैदान": 5706,
      "vel": 5707,
      "icon": 5708,
      "▁ஆனால்": 5709,
      "109": 5710,
      "1990": 5711,
      "26.": 5712,
      "people": 5713,
      "ச்_ச": 5714,
      "▁B.": 5715,
      "▁अरब": 5716,
      "a/a": 5717,
      "नाडु": 5718,
      "▁जल": 5719,
      "▁दर": 5720,
      "search": 5721,
      "168": 5722,
      "forni": 5723,
      "▁முக": 5724,
      "▁प्रति": 5725,
      "_Publishing": 5726,
      "ताब्": 5727,
      "▁குடும்ப": 5728,
      "स्त्र": 5729,
      "पुरी": 5730,
      "](https://hi.wikipedia.org/wiki/भारत#cite_ref-FOOTNOTE": 5731,
      "_மற்றும்": 5732,
      "▁इतिहास": 5733,
      "▁நிர்": 5734,
      "aliforni": 5735,
      "-0-520": 5736,
      "ுள்ளது.[[": 5737,
      "▁हैं,": 5738,
      "▁காண": 5739,
      "ற்றும": 5740,
      "ultan": 5741,
      "पर्यटन": 5742,
      "किम": 5743,
      "51-9": 5744,
      "▁2010](https://ta.wikipedia.org/wiki/இந்தியா#CITEREF": 5745,
      "▁தொக": 5746,
      "▁occ": 5747,
      "▁territory": 5748,
      "atter": 5749,
      "▁தொடக்க": 5750,
      "▁2009](https://ta.wikipedia.org/wiki/இந்தியா#CITEREF": 5751,
      "ரோப்பிய": 5752,
      "दीव": 5753,
      "▁इसके": 5754,
      "▁இரண்டு": 5755,
      "த்_தேர்தல்": 5756,
      "पालिका": 5757,
      "▁घाट": 5758,
      "▁ரூபாய்": 5759,
      "▁ரீதிய": 5760,
      "லுவல்": 5761,
      "▁सिनेमा": 5762,
      "arliamentary": 5763,
      "_Island": 5764,
      "ணையர்": 5765,
      "िक्षा": 5766,
      "▁பெரும்பாலான": 5767,
      "▁பயன்படுத்த": 5768,
      "திவாளர்": 5769,
      "िक्किम": 5770,
      "ல்தான": 5771,
      "\";\n": 5772,
      "/india-": 5773,
      "1]](https://en.wikipedia.org/wiki/India#cite_note-FOOTNOTE": 5774,
      "220": 5775,
      "223": 5776,
      "UT": 5777,
      "_24": 5778,
      "_38": 5779,
      "ember": 5780,
      "hen": 5781,
      "lack": 5782,
      "s.[[": 5783,
      "▁6.": 5784,
      "▁out": 5785,
      "ancy": 5786,
      "ances": 5787,
      "erritory": 5788,
      "International": 5789,
      "](https://en.wikipedia.org/wiki/The": 5790,
      "2013": 5791,
      "▁(2": 5792,
      "2002),": 5793,
      "right": 5794,
      "ations/": 5795,
      "▁cent": 5796,
      "280": 5797,
      "▁BRICS": 5798,
      "115": 5799,
      "_(India)": 5800,
      "india.com/": 5801,
      "▁\"Te": 5802,
      "](https://en.wikipedia.org/wiki/Doi_(identifier)": 5803,
      "trol": 5804,
      "ynas": 5805,
      "limate": 5806,
      "▁[doi](https://en.wikipedia.org/wiki/Doi_(identifier)": 5807,
      "formation": 5808,
      "▁high": 5809,
      "worldcat.org/": 5810,
      "-an": 5811,
      "534": 5812,
      "Bi": 5813,
      "ax": 5814,
      "ault": 5815,
      "ive": 5816,
      "s_of_India": 5817,
      "ually": 5818,
      "▁[V": 5819,
      "▁[Fisher": 5820,
      "▁(2011": 5821,
      "▁Centre": 5822,
      "▁Afric": 5823,
      "atch": 5824,
      "▁Ram": 5825,
      "▁Delhi": 5826,
      "▁total": 5827,
      "akrishn": 5828,
      "▁Increase": 5829,
      "opular": 5830,
      "MetcalfMetcalf2012": 5831,
      "566": 5832,
      "_page": 5833,
      "1971": 5834,
      "catal": 5835,
      "Fisher2018),": 5836,
      "-largest": 5837,
      "ject": 5838,
      "itzel": 5839,
      "▁Company": 5840,
      "jpg/250px-": 5841,
      "uiper": 5842,
      "kZVuDwAAQBAJ&pg=PA": 5843,
      "&#": 5844,
      ".పూ.": 5845,
      "122": 5846,
      "6).": 5847,
      "=\"": 5848,
      "Jha": 5849,
      "Kashmir": 5850,
      "PT": 5851,
      "Tarlo": 5852,
      "_2004": 5853,
      "_2008": 5854,
      "_உலக": 5855,
      "p?": 5856,
      "uth": 5857,
      "yayan": 5858,
      "रण": 5859,
      "लिस": 5860,
      "वार": 5861,
      "वीं": 5862,
      "शक": 5863,
      "स](https://hi.wikipedia.org/wiki/": 5864,
      "सभा": 5865,
      "ां": 5866,
      "ाप": 5867,
      "ांध": 5868,
      "ोष": 5869,
      "०१": 5870,
      "கவல்": 5871,
      "ஜன": 5872,
      "பதி": 5873,
      "லின்": 5874,
      "ளம்": 5875,
      "வண்": 5876,
      "ஸ்ட": 5877,
      "ீர்": 5878,
      "ంతం": 5879,
      "ఆగ": 5880,
      "కళ": 5881,
      "ఖండ్": 5882,
      "గ్": 5883,
      "గిన": 5884,
      "గఢ్": 5885,
      "జో": 5886,
      "ట్ర": 5887,
      "తెలుగు": 5888,
      "ద్రా": 5889,
      "పద": 5890,
      "భి": 5891,
      "యో": 5892,
      "లక్ష": 5893,
      "వర": 5894,
      "శో": 5895,
      "షా": 5896,
      "హు": 5897,
      "హార్": 5898,
      "హాయ": 5899,
      "ాష్ట్ర": 5900,
      "ీక": 5901,
      "ీహార్": 5902,
      "ుల": 5903,
      "ుల్": 5904,
      "ోల్": 5905,
      "ోత్స": 5906,
      "ౌర్య": 5907,
      "▁ध": 5908,
      "▁do": 5909,
      "▁9.": 5910,
      "ording": 5911,
      "edia": 5912,
      "▁[హ": 5913,
      "▁\"హ": 5914,
      "▁\"ఢిల్లీ": 5915,
      "ந்தியா": 5916,
      "](https://ta.wikipedia.org/wiki/R": 5917,
      "](https://ta.wikipedia.org/wiki/வி": 5918,
      "](https://ta.wikipedia.org/wiki/உலக": 5919,
      "இந்தோ": 5920,
      "▁பத": 5921,
      "ominal": 5922,
      "ப்பில்": 5923,
      "▁(இந்தியா)": 5924,
      "్రూ": 5925,
      "](https://te.wikipedia.org/wiki/సి": 5926,
      "▁மர": 5927,
      "▁மெ": 5928,
      "▁மனித": 5929,
      "த்தொடர்": 5930,
      "த்தால்": 5931,
      "▁கலை": 5932,
      "▁கிழ": 5933,
      "ருநாட": 5934,
      "▁வரை": 5935,
      "ాలా": 5936,
      "ాలలో": 5937,
      "▁அறிய": 5938,
      "్యం": 5939,
      "த்_": 5940,
      "राठ": 5941,
      "ற்றல்": 5942,
      "ிரே": 5943,
      "ర్ణా": 5944,
      "ర్మే": 5945,
      "raj": 5946,
      "▁River": 5947,
      "▁made": 5948,
      "्ता:": 5949,
      "urry": 5950,
      "▁This": 5951,
      "சுவ": 5952,
      "లోక్‌సభ": 5953,
      "mploy": 5954,
      "ayback": 5955,
      "▁వంశ": 5956,
      "▁E.": 5957,
      "சிறப்பு:EditPage/": 5958,
      "▁दृ": 5959,
      "▁दो": 5960,
      "▁இந்தியாவை": 5961,
      "ாரி": 5962,
      "▁largest": 5963,
      "tual": 5964,
      "ండర్": 5965,
      "▁முதன்": 5966,
      "▁प्रमुख": 5967,
      "*](https://www.": 5968,
      "త్మా": 5969,
      "▁అతి": 5970,
      "ికి": 5971,
      "ன்றா": 5972,
      "▁[↑](https://ta.wikipedia.org/wiki/இந்தியா#cite_ref-FOOTNOTEMetcalfMetcalf2006": 5973,
      "▁Indus": 5974,
      "ద్దు": 5975,
      "▁[பா": 5976,
      "ல்கள்": 5977,
      "▁రహదార": 5978,
      "మాచల్": 5979,
      "▁సామ్రాజ్య": 5980,
      "_மலை": 5981,
      "రువా": 5982,
      "రుణా": 5983,
      "2010),": 5984,
      "న్నో": 5985,
      "ங்கள்\")": 5986,
      "endra": 5987,
      "िये": 5988,
      "1):": 5989,
      "మిజో": 5990,
      "▁रह": 5991,
      "▁ఇది": 5992,
      "▁(PDF),": 5993,
      "▁लग": 5994,
      "DwAAQBAJ": 5995,
      "தன்மைக்": 5996,
      "merg": 5997,
      "▁జరి": 5998,
      "▁విస్త": 5999,
      "ृत्य": 6000,
      "முறை": 6001,
      "முதன்மைக்": 6002,
      "▁శతాబ్ద": 6003,
      "ట్టు": 6004,
      "ूनिव": 6005,
      "రాష్ట్రాలు": 6006,
      "వేద": 6007,
      "▁రాజకీయ": 6008,
      "▁union": 6009,
      "▁ప్రాంతాలు": 6010,
      "హిమాచల్": 6011,
      "▁இயக்க": 6012,
      "హాత్మా": 6013,
      "ूरो": 6014,
      "▁ஒன்றிய": 6015,
      "atsyayan": 6016,
      "▁ప్రదేశ్\")": 6017,
      "](https://hi.wikipedia.org/wiki/भारत_की_": 6018,
      "](https://hi.wikipedia.org/wiki/भारत_का_": 6019,
      "హారాష్ట్ర": 6020,
      "శాస్త్ర": 6021,
      "ும்பை": 6022,
      "రాజస్థాన్": 6023,
      "](https://ta.wikipedia.org/wiki/இந்திய_ரூபாய்": 6024,
      "▁2004](https://ta.wikipedia.org/wiki/இந்தியா#CITEREF": 6025,
      "▁వాతావరణ": 6026,
      "_संघ": 6027,
      "దినోత్స": 6028,
      "బెంగాలీ": 6029,
      "యన్మార్": 6030,
      "▁(eds.),": 6031,
      "▁(eds.).": 6032,
      "▁கட்டுரை": 6033,
      "▁ముఖ్య": 6034,
      "New_Delhi": 6035,
      "▁युद्ध": 6036,
      "तेलु": 6037,
      "▁न्यायालय": 6038,
      "ச்சு:": 6039,
      "धिकारिक": 6040,
      "ంజాబ్": 6041,
      "▁వ్యాస": 6042,
      "யோன்": 6043,
      "▁[पुरालेखित": 6044,
      "గుజరాత్": 6045,
      "ఆఫ్ఘనిస్తాన్": 6046,
      "న్‌ఫర్మే": 6047,
      "▁अगस्त": 6048,
      "धानमंत्री": 6049,
      "▁Registrar": 6050,
      "వ](https://te.wikipedia.org/wiki/List_of_": 6051,
      "▁ஆயுத": 6052,
      "రిహద్దు": 6053,
      "ப்_பொதுத்_தேர்தல்": 6054,
      "చ్చేరి": 6055,
      "▁ரூபாய்\")": 6056,
      "Tarlo1996": 6057,
      "ర్ణాటక": 6058,
      "రుణాచల్": 6059,
      "న్‌ఫర్మేషన్": 6060,
      "-D": 6061,
      "-for": 6062,
      "0–": 6063,
      "1%": 6064,
      "2-8": 6065,
      "cess": 6066,
      "fgh": 6067,
      "iti": 6068,
      "ling": 6069,
      "minist": 6070,
      "tle": 6071,
      "▁—": 6072,
      "▁art": 6073,
      "oral": 6074,
      "▁\"National": 6075,
      "2022": 6076,
      "erence": 6077,
      "arty": 6078,
      "▁(in": 6079,
      "▁pre": 6080,
      "rak": 6081,
      "very": 6082,
      "108": 6083,
      "▁mathe": 6084,
      "▁Tim": 6085,
      "oloni": 6086,
      "▁relations": 6087,
      "▁only": 6088,
      "_Ar": 6089,
      "html).": 6090,
      "order": 6091,
      "svg": 6092,
      "o-operation": 6093,
      "_Indian_": 6094,
      "▁composed": 6095,
      "Wikipedia\\_articles": 6096,
      "](https://doi.org/10.10": 6097,
      "fghan": 6098,
      "-e": 6099,
      "-de": 6100,
      "/lin": 6101,
      "319": 6102,
      "418": 6103,
      "Kumar": 6104,
      "Main": 6105,
      "_30": 6106,
      "hl": 6107,
      "vatsyayan": 6108,
      "–24": 6109,
      "din": 6110,
      "▁\"India": 6111,
      "enni": 6112,
      "ency": 6113,
      "▁(c": 6114,
      "acy": 6115,
      "\\_(": 6116,
      "-100": 6117,
      "id.": 6118,
      "red/lin": 6119,
      "links": 6120,
      "duct": 6121,
      "▁[\"G": 6122,
      "▁[\"M": 6123,
      "tries/": 6124,
      "_Asi": 6125,
      "▁trans": 6126,
      "ternal": 6127,
      "udget": 6128,
      "▁depend": 6129,
      "▁status": 6130,
      "905": 6131,
      "_News": 6132,
      "Asher2006": 6133,
      "AsherAsher2006": 6134,
      "_BRICS": 6135,
      "countries/": 6136,
      "▁\"Special:BookSources/978-0-": 6137,
      "](Special:BookSources/978-0-": 6138,
      "▁country": 6139,
      "Template_": 6140,
      "ducation": 6141,
      "-lord": 6142,
      "kimages/": 6143,
      "shared/lin": 6144,
      "AGE": 6145,
      "nclm.nic.in/shared/lin": 6146,
      "vatsyayan-lord": 6147,
      "nclm.nic.in/shared/linkimages/": 6148,
      "$](https://ta.wikipedia.org/wiki/அமெரிக்க": 6149,
      "-A": 6150,
      "-प": 6151,
      "-க": 6152,
      "3-8": 6153,
      "Bas": 6154,
      "Home": 6155,
      "_अ": 6156,
      "_ए": 6157,
      "_15": 6158,
      "cropped": 6159,
      "data": 6160,
      "hal": 6161,
      "yy": 6162,
      "ंका": 6163,
      "कट": 6164,
      "गंगा": 6165,
      "देव": 6166,
      "भो": 6167,
      "मेर": 6168,
      "ल](https://hi.wikipedia.org/wiki/": 6169,
      "लंका": 6170,
      "हैद": 6171,
      "िला": 6172,
      "ीमा": 6173,
      "ूह": 6174,
      "्म": 6175,
      "ஃப": 6176,
      "அ$](https://ta.wikipedia.org/wiki/அமெரிக்க": 6177,
      "ஒன்ற": 6178,
      "டம்": 6179,
      "ணய": 6180,
      "ந்": 6181,
      "ன்க": 6182,
      "ராக": 6183,
      "லே": 6184,
      "லைய": 6185,
      "வோ": 6186,
      "ேரு": 6187,
      "ோதி": 6188,
      "▁ट": 6189,
      "▁ci": 6190,
      "▁36": 6191,
      "▁[ओ": 6192,
      "▁\"V": 6193,
      "▁\"ओ": 6194,
      "ants": 6195,
      "ம்\")\n": 6196,
      "இந்தியா)\")": 6197,
      "▁(இந்தியா)\")": 6198,
      "](https://hi.wikipedia.org/wiki/आ": 6199,
      "த்தது.": 6200,
      "த்தைக்": 6201,
      "▁கே": 6202,
      "▁காடு": 6203,
      "▁திற": 6204,
      "78.": 6205,
      "▁CE": 6206,
      "ingdom": 6207,
      "▁இசை": 6208,
      "சிசி": 6209,
      "▁நகர்": 6210,
      "राबाद": 6211,
      "▁Policy": 6212,
      "▁Punjab": 6213,
      "indicator": 6214,
      "▁culture": 6215,
      "ाने": 6216,
      "▁ஆட்சி": 6217,
      "verse": 6218,
      "र्ना": 6219,
      "chison": 6220,
      "its": 6221,
      "itchison": 6222,
      "சுலா": 6223,
      "ள்ளன.": 6224,
      "களு": 6225,
      "களால்": 6226,
      "களைக்": 6227,
      "▁अप्र": 6228,
      "▁2002": 6229,
      "ight": 6230,
      "▁economic": 6231,
      "_का_": 6232,
      "றுப": 6233,
      "ார்க்க": 6234,
      "▁1960": 6235,
      "▁hum": 6236,
      "_in_New_Delhi": 6237,
      "▁முசுலி": 6238,
      "▁Fund": 6239,
      "▁नी": 6240,
      "ாலர்": 6241,
      "ாலர்\")": 6242,
      "-219": 6243,
      "▁Linguistic": 6244,
      "▁தொடர்ந்து": 6245,
      "conomist": 6246,
      "ணிடப்பட்டது.": 6247,
      "▁2011,": 6248,
      "▁2011ஆம்": 6249,
      "▁\"இந்தியப்": 6250,
      "▁\"இந்தியத்": 6251,
      ".jpg)](https://hi.wikipedia.org/wiki/चित्र:": 6252,
      "▁புற": 6253,
      "ibcode": 6254,
      "▁संबंध": 6255,
      "म्प": 6256,
      "हिमा": 6257,
      "▁பிரப": 6258,
      "▁பிரதம": 6259,
      "त्तीस": 6260,
      "र्वो": 6261,
      "\"](https://web.archive.org/web/20140": 6262,
      "▁भाषाओं": 6263,
      "ext": 6264,
      "ssoci": 6265,
      "▁துறை": 6266,
      "▁करने": 6267,
      "िरपे": 6268,
      "engali": 6269,
      "▁வேறுப": 6270,
      "वायु": 6271,
      "ளாண்மை": 6272,
      "▁2007](https://ta.wikipedia.org/wiki/இந்தியா#CITEREF": 6273,
      "ीपी": 6274,
      "▁[இம்": 6275,
      "▁வாழ்": 6276,
      "▁பரணிடப்பட்டது.": 6277,
      "▁मेला\")": 6278,
      "த்_திரைப்படத்துறை": 6279,
      "▁हुए": 6280,
      "▁2019,": 6281,
      "troduction": 6282,
      "மீர்": 6283,
      "▁2008](https://ta.wikipedia.org/wiki/இந்தியா#CITEREF": 6284,
      "_இய": 6285,
      "▁ஆறு\")": 6286,
      "ேற்குத்": 6287,
      "▁பிரதேசத்தின்": 6288,
      "-4020": 6289,
      "▁டாலர்\")": 6290,
      "▁வடக்கு": 6291,
      "भीम": 6292,
      "िल्ली": 6293,
      "▁कार्य": 6294,
      "urton199": 6295,
      "▁மூலத்தில்": 6296,
      "▁கணக்கெடுப்பு": 6297,
      "▁[ஐஅ$](https://ta.wikipedia.org/wiki/அமெரிக்க": 6298,
      "Blurton199": 6299,
      "▁rule": 6300,
      "▁குறிப்பிட": 6301,
      "▁[हिन्दी](https://hi.wikipedia.org/wiki/": 6302,
      "_டாலர்": 6303,
      "▁கீழ்": 6304,
      "▁அரசாங்க": 6305,
      "▁தேர்தல்\")": 6306,
      "issile": 6307,
      "▁1998](https://ta.wikipedia.org/wiki/இந்தியா#CITEREFStein1998),": 6308,
      "▁அன்று.": 6309,
      "हैदराबाद": 6310,
      "र्नाटक": 6311,
      "िरपेक्ष": 6312,
      "▁பரணிடப்பட்டது..": 6313,
      "▁[ஐஅ$](https://ta.wikipedia.org/wiki/அமெரிக்க_டாலர்": 6314,
      "-di": 6315,
      "Bh": 6316,
      "Sanskrit": 6317,
      "_9": 6318,
      "_10": 6319,
      "a-4": 6320,
      "bu": 6321,
      "eld": 6322,
      "i,": 6323,
      "languages": 6324,
      "oast": 6325,
      "que": 6326,
      "▁United": 6327,
      "▁article": 6328,
      "report": 6329,
      "hibi": 6330,
      "](https://en.wikipedia.org/wiki/I": 6331,
      "sive": 6332,
      "▁Ag": 6333,
      "lowing": 6334,
      "chedu": 6335,
      "▁found": 6336,
      "107": 6337,
      "▁maj": 6338,
      "24.": 6339,
      "▁women": 6340,
      "oung": 6341,
      "17.": 6342,
      "▁her": 6343,
      "709": 6344,
      "mplate": 6345,
      "▁original](http://www.": 6346,
      "▁([₹": 6347,
      "osp": 6348,
      "▁1997": 6349,
      "quality": 6350,
      "conomy_of_": 6351,
      "reek": 6352,
      "ility": 6353,
      "AsherTalbot2008),": 6354,
      "▁2018](https://en.wikipedia.org/wiki/India#CITEREF": 6355,
      "▁Chinese": 6356,
      ".com/news/national": 6357,
      "KulkeRothermund2004),": 6358,
      "▁used": 6359,
      "a.gov/": 6360,
      "thehindu.com/news/national": 6361,
      "/hindi": 6362,
      "▁Persian": 6363,
      "flu": 6364,
      "cyclopedia": 6365,
      "▁\"Template": 6366,
      "-H": 6367,
      "-i": 6368,
      ".indiatimes.com/": 6369,
      "/e": 6370,
      "125": 6371,
      "400": 6372,
      "410": 6373,
      "Allchin": 6374,
      "Petraglia": 6375,
      "_2007": 6376,
      "_cl": 6377,
      "mil": 6378,
      "nc": 6379,
      "tlas": 6380,
      "▁40": 6381,
      "inance": 6382,
      "info": 6383,
      "erry": 6384,
      "erman": 6385,
      "arayan": 6386,
      "cise": 6387,
      "omp": 6388,
      "1967": 6389,
      "lec": 6390,
      "\\_country": 6391,
      "ager": 6392,
      "▁Society": 6393,
      "▁Pe": 6394,
      "216": 6395,
      "vert": 6396,
      "▁Michael": 6397,
      "238": 6398,
      "pee": 6399,
      "▁eastern": 6400,
      "▁Gandhi": 6401,
      "a_C": 6402,
      "a_M": 6403,
      "27)": 6404,
      "▁human": 6405,
      "AAAAMAAJ": 6406,
      "70%": 6407,
      "▁Wiki": 6408,
      "▁began": 6409,
      "_Nations": 6410,
      "emi": 6411,
      "_pro": 6412,
      "exis": 6413,
      "express": 6414,
      "_map": 6415,
      "Pages\\_using\\_": 6416,
      "entral_": 6417,
      "▁left": 6418,
      "ote:": 6419,
      "▁ago": 6420,
      "mitt": 6421,
      "f/f": 6422,
      "d/d": 6423,
      "42-5": 6424,
      "default": 6425,
      "▁Quote:": 6426,
      "first": 6427,
      "ynasty": 6428,
      "PetragliaAllchin": 6429,
      "infobox": 6430,
      "1200": 6431,
      "1-1": 6432,
      "2.\n": 6433,
      "2]](https://en.wikipedia.org/wiki/India#cite_note-FOOTNOTE": 6434,
      "8]](https://ta.wikipedia.org/wiki/இந்தியா#cite_note-FOOTNOTE": 6435,
      "CL": 6436,
      "John": 6437,
      "UK": 6438,
      "_50": 6439,
      "_கா": 6440,
      "ble": 6441,
      "day": 6442,
      "dones": 6443,
      "election": 6444,
      "m2": 6445,
      "nominal": 6446,
      "rance": 6447,
      "ues": 6448,
      "wan": 6449,
      "yd": 6450,
      "ंह": 6451,
      "गल": 6452,
      "झार": 6453,
      "डिया": 6454,
      "तट": 6455,
      "निक": 6456,
      "पान": 6457,
      "मालय": 6458,
      "हन": 6459,
      "हरी": 6460,
      "ाय": 6461,
      "िस्तान": 6462,
      "िहार": 6463,
      "தில்": 6464,
      "நிலை": 6465,
      "னே": 6466,
      "னிய": 6467,
      "பூ": 6468,
      "பார்": 6469,
      "ாத": 6470,
      "ுறை": 6471,
      "ேல": 6472,
      "ைத்": 6473,
      "ంతి": 6474,
      "కాల": 6475,
      "కారం": 6476,
      "ఖ్": 6477,
      "గంగా": 6478,
      "టో": 6479,
      "డిన": 6480,
      "తీ": 6481,
      "ధి": 6482,
      "ధించ": 6483,
      "నల్": 6484,
      "మన": 6485,
      "మర": 6486,
      "ర్యా": 6487,
      "లం": 6488,
      "లతో": 6489,
      "లమె": 6490,
      "ీస్": 6491,
      "ూప": 6492,
      "ూరు": 6493,
      "ెనీ": 6494,
      "ౌక": 6495,
      "▁ऑ": 6496,
      "▁ద": 6497,
      "▁ఫ": 6498,
      "▁राष्ट्र": 6499,
      "▁लेख": 6500,
      "▁దక్షిణ": 6501,
      "▁హిందూ": 6502,
      "▁గాంధీ": 6503,
      "edie": 6504,
      "▁[च": 6505,
      "▁[భారతదేశం": 6506,
      "▁[ఢిల్లీ": 6507,
      "▁[archived": 6508,
      "▁\"சி": 6509,
      "▁\"வி": 6510,
      "reen": 6511,
      "reed": 6512,
      "ந்தே": 6513,
      "▁பங்கு": 6514,
      "இந்தியாவின்": 6515,
      "ப்பாடு": 6516,
      "ப்பிரி": 6517,
      "](https://hi.wikipedia.org/wiki/ओ": 6518,
      "▁कुल": 6519,
      "ர்ச்சி": 6520,
      "▁மண்டல": 6521,
      "▁காட்டு": 6522,
      "▁கால்": 6523,
      "ారస": 6524,
      "ருவ": 6525,
      "▁industry": 6526,
      "▁வழி": 6527,
      "▁இக்கால": 6528,
      "ాలను": 6529,
      "▁அண்.": 6530,
      "▁Schwartzberg": 6531,
      "▁நாட்டு": 6532,
      "స్](https://te.wikipedia.org/wiki/": 6533,
      "▁పెద్ద": 6534,
      "▁sc": 6535,
      "00–సా.శ.పూ.": 6536,
      "▁சது": 6537,
      "ర్లు": 6538,
      "rative": 6539,
      "र्ष": 6540,
      "▁केन्द्र": 6541,
      "▁ही": 6542,
      "▁होत": 6543,
      "ists": 6544,
      "లు\")": 6545,
      "-459": 6546,
      "-349": 6547,
      "▁B.;": 6548,
      "▁என்ற": 6549,
      "ంది": 6550,
      "▁వే": 6551,
      "▁report": 6552,
      "15)": 6553,
      "வுக்கு": 6554,
      "ियां": 6555,
      "270": 6556,
      "▁बन": 6557,
      "▁बा": 6558,
      "▁முற": 6559,
      "▁नद": 6560,
      "▁नहीं": 6561,
      "▁से](http://www.": 6562,
      "ப்பட்டது.": 6563,
      "త్తం": 6564,
      "avy": 6565,
      "▁(సా.శ.15": 6566,
      "▁(సా.శ.13": 6567,
      "▁అనే": 6568,
      "▁W.": 6569,
      "▁वार": 6570,
      "▁ప్రజ": 6571,
      "▁எண்ண": 6572,
      "తం\")": 6573,
      "▁tree": 6574,
      "கம்\")": 6575,
      "पुरा": 6576,
      "▁உள்ளட": 6577,
      "ంచి": 6578,
      "स्ला": 6579,
      "▁கொள்கை": 6580,
      "▁ఆఫ్": 6581,
      "▁సాం": 6582,
      "▁उद्यान": 6583,
      "▁है।[[": 6584,
      "ార్లమె": 6585,
      "utra": 6586,
      "▁शताब्": 6587,
      "▁புதிய": 6588,
      "_Mon": 6589,
      "_நி": 6590,
      "కిస్థాన్": 6591,
      "▁నే": 6592,
      "▁నగర": 6593,
      "ogue": 6594,
      "▁रहा": 6595,
      "றிவு": 6596,
      "ాయి.": 6597,
      "ட்டி\")": 6598,
      "టిబె": 6599,
      "్రీ.పూ.": 6600,
      "▁மாற்ற": 6601,
      "Singh200918": 6602,
      "ండియా": 6603,
      "▁சிற்ப": 6604,
      "▁like": 6605,
      "▁ఎక్కువ": 6606,
      "▁ఎన్నో": 6607,
      "विशेष:EditPage/": 6608,
      "▁பெரும்": 6609,
      "▁நடன": 6610,
      "தேசம்": 6611,
      "▁./వర్గం:Wikipedia\\_articles": 6612,
      "_సం": 6613,
      "ilitary": 6614,
      "ారు.\n": 6615,
      "▁தெற்கு": 6616,
      "eries": 6617,
      "▁मेला](https://hi.wikipedia.org/wiki/": 6618,
      "టుంబ": 6619,
      "2000),": 6620,
      "-language\\_s": 6621,
      "▁2019.\n": 6622,
      "▁இயற்க": 6623,
      "odiversity": 6624,
      "▁భారత్": 6625,
      "▁play": 6626,
      "▁\"History": 6627,
      "श्चिमी": 6628,
      "गणराज्य": 6629,
      "మెరి": 6630,
      "/articleshow/5": 6631,
      "▁మొత్తం": 6632,
      "ources\\_(": 6633,
      "▁प्राप्त": 6634,
      "బాద్": 6635,
      "issing": 6636,
      "ంపెనీ": 6637,
      "▁<https://web.archive.org/web/201": 6638,
      "7,26": 6639,
      "▁स्रोत/978-1": 6640,
      "](https://hi.wikipedia.org/wiki/विशेष:पुस्तक_स्रोत/978-1": 6641,
      "హ్మ": 6642,
      "merican": 6643,
      "View": 6644,
      "▁ఏర్": 6645,
      "Wolpert2003": 6646,
      "్రిటిషు": 6647,
      "▁भूम": 6648,
      "ீபக": 6649,
      "▁गणराज्य": 6650,
      "ological": 6651,
      "achine": 6652,
      "▁चुनाव": 6653,
      "▁అత్యధిక": 6654,
      "ీర్ణ": 6655,
      "దక్షిణ_ఆసియా": 6656,
      "रेलू": 6657,
      "ல்வகை": 6658,
      "▁நிர்வாக": 6659,
      "▁முதன்மையான": 6660,
      "▁[पुरालेखित](https://web.archive.org/web/201": 6661,
      "fghanistan": 6662,
      "_Asia_S": 6663,
      "र्वोच्च": 6664,
      "▁([₹](https://ta.wikipedia.org/wiki/இந்திய_ரூபாய்": 6665,
      "विशेष:EditPage/साँचा:": 6666,
      "▁./వర్గం:Wikipedia\\_articles\\_with\\_": 6667,
      "-language\\_sources\\_(": 6668,
      ")\"),": 6669,
      "-ar": 6670,
      "-asi": 6671,
      "1.\n": 6672,
      "9).": 6673,
      "Ex": 6674,
      "_di": 6675,
      "_36": 6676,
      "sing": 6677,
      "whi": 6678,
      "oram": 6679,
      "orest": 6680,
      "2021": 6681,
      "reign": 6682,
      "thnic": 6683,
      "▁(1):": 6684,
      "lid": 6685,
      "ata_": 6686,
      "▁Summ": 6687,
      "▁social": 6688,
      "23.": 6689,
      "type": 6690,
      "opland": 6691,
      "▁1980": 6692,
      "406": 6693,
      "▁Francis": 6694,
      "▁India\").": 6695,
      "_Agency": 6696,
      "▁non-": 6697,
      "▁before": 6698,
      "▁[Craven": 6699,
      "▁def": 6700,
      "key": 6701,
      "overeign": 6702,
      "2005),": 6703,
      "▁\"Oxford": 6704,
      "olden": 6705,
      "▁(identifier)\"):[10.10": 6706,
      "sites/default": 6707,
      "sites/default/files/": 6708,
      "&s": 6709,
      "*)": 6710,
      "1%20": 6711,
      "3,": 6712,
      "5)\n": 6713,
      "Economic": 6714,
      "Xavi": 6715,
      "ethnologue": 6716,
      "gni": 6717,
      "more": 6718,
      "▁68": 6719,
      "▁[s": 6720,
      "int": 6721,
      "anion": 6722,
      "on,": 6723,
      "er-": 6724,
      "eral_": 6725,
      "estic": 6726,
      "omestic": 6727,
      "190": 6728,
      "ately": 6729,
      "lief": 6730,
      "-18": 6731,
      "▁Ad": 6732,
      "▁All": 6733,
      "▁Social": 6734,
      ").jpg": 6735,
      "ict": 6736,
      "url": 6737,
      "▁Tamil": 6738,
      "-300": 6739,
      "▁Himalay": 6740,
      "29)": 6741,
      "▁1965": 6742,
      "_in_South_Asia": 6743,
      "_St": 6744,
      "epal": 6745,
      "aving": 6746,
      "2011religion": 6747,
      "ast_Asia_S": 6748,
      "_and_Development": 6749,
      "▁Vedic": 6750,
      "▁Asia:": 6751,
      "aries": 6752,
      "ineering": 6753,
      "ikkim": 6754,
      "html)": 6755,
      "▁control": 6756,
      "_Fund": 6757,
      "-0-521-80904-7": 6758,
      "▁produc": 6759,
      "▁sector": 6760,
      "Stein2010),": 6761,
      "%7C": 6762,
      "▁[Oxford": 6763,
      "▁Islands": 6764,
      "Environment": 6765,
      "-lead": 6766,
      "▁Minorities": 6767,
      "data.worldbank.org/": 6768,
      "apita": 6769,
      "Report.pdf)": 6770,
      "union_ter": 6771,
      "Census2011religion": 6772,
      "nominal)": 6773,
      "ethnologue.com/": 6774,
      "ast_Asia_Summit": 6775,
      "data.worldbank.org/indicator": 6776,
      "-S": 6777,
      "-विज्ञान": 6778,
      ".edu": 6779,
      "/F": 6780,
      "1]](https://ta.wikipedia.org/wiki/இந்தியா#cite_note-": 6781,
      "2)[[": 6782,
      "5]](https://ta.wikipedia.org/wiki/இந்தியா#cite_note-": 6783,
      "623": 6784,
      "7).": 6785,
      "Michell": 6786,
      "Oj": 6787,
      "Ram": 6788,
      "TO": 6789,
      "Times": 6790,
      "_आ": 6791,
      "_उ": 6792,
      "_व": 6793,
      "_he": 6794,
      "_கு": 6795,
      "_देश": 6796,
      "aut": 6797,
      "gi": 6798,
      "lé": 6799,
      "lass": 6800,
      "osi": 6801,
      "pdf)": 6802,
      "ंच": 6803,
      "ईरा": 6804,
      "छत्तीस": 6805,
      "त्व": 6806,
      "फल": 6807,
      "फ्रीका": 6808,
      "लग": 6809,
      "लयाल": 6810,
      "स\")": 6811,
      "सून": 6812,
      "िंध": 6813,
      "ीच": 6814,
      "१९": 6815,
      "கிய": 6816,
      "செ": 6817,
      "சர்": 6818,
      "டும்": 6819,
      "டக்": 6820,
      "டனம்": 6821,
      "தார்": 6822,
      "னஸ்": 6823,
      "மர்": 6824,
      "ரில்": 6825,
      "ல்டு": 6826,
      "வதற்கு": 6827,
      "ீதி": 6828,
      "ோள": 6829,
      "▁:": 6830,
      "▁·": 6831,
      "▁ரா": 6832,
      "▁his": 6833,
      "▁[வி": 6834,
      "▁[Harle": 6835,
      "tes": 6836,
      "▁\"च": 6837,
      "▁\"ल": 6838,
      "anc": 6839,
      "ியான்": 6840,
      "arath": 6841,
      "](https://ta.wikipedia.org/wiki/S": 6842,
      "▁பரி": 6843,
      "ப்பந்த": 6844,
      "](https://hi.wikipedia.org/wiki/च": 6845,
      "▁कई": 6846,
      "▁कश्मीर": 6847,
      "க்கண்ட": 6848,
      "க்கிற": 6849,
      "andy": 6850,
      "து.\n": 6851,
      "▁மின்": 6852,
      "▁தடு": 6853,
      "▁திட்ட": 6854,
      "▁सद": 6855,
      "▁सैन": 6856,
      "▁incre": 6857,
      "▁வகு": 6858,
      "▁power": 6859,
      "▁இணை": 6860,
      "sions": 6861,
      "▁Ac": 6862,
      "சினஸ்": 6863,
      "▁मुख": 6864,
      "க்சு": 6865,
      "▁நான": 6866,
      "▁पर्वत": 6867,
      "▁சூ": 6868,
      "▁ஆசியா": 6869,
      "திர்": 6870,
      "urch": 6871,
      "-39": 6872,
      "களி": 6873,
      "mentin-": 6874,
      "50th": 6875,
      "वित": 6876,
      "ிலுள்ள": 6877,
      "_का": 6878,
      "▁religious": 6879,
      "▁दि": 6880,
      "▁1970": 6881,
      "409": 6882,
      "ராட்சி": 6883,
      "▁बीच": 6884,
      "-9677": 6885,
      "▁से](http://": 6886,
      "_Pro": 6887,
      "ताज": 6888,
      "ங்களாக": 6889,
      "क्षा": 6890,
      "न्दिर": 6891,
      "48)": 6892,
      "▁आधिकारिक": 6893,
      "onsoon": 6894,
      "ணிப்பு": 6895,
      "▁des": 6896,
      "स्थ": 6897,
      "](https://ta.wikipedia.org/wiki/இந்தியப்_ப": 6898,
      "▁गु": 6899,
      "▁उत्पाद": 6900,
      "ाद्वीप": 6901,
      "▁development": 6902,
      "▁புவி": 6903,
      "▁புலி": 6904,
      "Harvard": 6905,
      "_मंदिर": 6906,
      "▁संस्कृति": 6907,
      "लेट": 6908,
      "▁பாணி": 6909,
      "प्रा": 6910,
      "_Mahal": 6911,
      "▁इन": 6912,
      "-pro": 6913,
      "▁\"தெ": 6914,
      "िस्ट": 6915,
      "கிறி": 6916,
      "_Re": 6917,
      "](https://ta.wikipedia.org/wiki/தெ": 6918,
      "ட்டிடக்கலை": 6919,
      "▁करोड़": 6920,
      "வெப்ப": 6921,
      "▁अनु": 6922,
      "ரிக்கும்": 6923,
      "केर": 6924,
      "▁தொலை": 6925,
      "▁[अंग्रेज़": 6926,
      "▁மூன்று": 6927,
      "▁கொண்டுள்ளது.[[": 6928,
      "வேத": 6929,
      "value": 6930,
      "▁நீர்": 6931,
      "▁நீண்ட": 6932,
      "-203": 6933,
      "▁பரப்ப": 6934,
      "▁பரவல": 6935,
      "▁जनगणना": 6936,
      "1988": 6937,
      "▁हैं।\n": 6938,
      "▁राजनी": 6939,
      "▁[Ludden": 6940,
      "▁\"पंजाब": 6941,
      "र्थव्यवस्था": 6942,
      "▁2022.\n": 6943,
      "▁[पंजाब": 6944,
      "करण": 6945,
      "c=0&": 6946,
      "▁இராச்சிய": 6947,
      "▁நாடாளுமன்ற": 6948,
      "74-108": 6949,
      "▁होता": 6950,
      "ब्ब": 6951,
      "மயமலை": 6952,
      "Harle1994),": 6953,
      "▁जिसमें": 6954,
      "▁பாதுகாப்புப்": 6955,
      "▁பாதுகாப்புச்": 6956,
      "_இந்தியப்_பொதுத்_தேர்தல்": 6957,
      "▁कारण": 6958,
      "▁கூட": 6959,
      "ுகலாயப்": 6960,
      "ोर्ड": 6961,
      "_मेला?action=edit&redlink=1": 6962,
      "▁காரணமாக": 6963,
      "](https://ta.wikipedia.org/wiki/இந்திய_அரசு": 6964,
      "▁விரிவ": 6965,
      ".nl": 6966,
      "गोआ": 6967,
      "▁கல்வி": 6968,
      "▁பொருட்கள": 6969,
      "श्रीलंका": 6970,
      "▁texts": 6971,
      "र्सिट": 6972,
      "▁கடற்கரை": 6973,
      "-78074-108": 6974,
      "▁(2nd": 6975,
      "இந்தோனே": 6976,
      "ूनिवर्सिट": 6977,
      "Home_Affairs": 6978,
      "▁[archived](https://web.archive.org/web/201": 6979,
      "ீபகற்ப": 6980,
      "Ojha": 6981,
      "lémentin-": 6982,
      "-967733-7": 6983,
      "▁[अंग्रेज़ी](https://hi.wikipedia.org/wiki/अ": 6984,
      "-78074-108-6": 6985,
      "lémentin-Ojha": 6986,
      "%)": 6987,
      "/D": 6988,
      "2-0": 6989,
      "2-7": 6990,
      "C)": 6991,
      "Spear": 6992,
      "_t": 6993,
      "a;": 6994,
      "dx": 6995,
      "dlife": 6996,
      "ix": 6997,
      "uff": 6998,
      "uters": 6999,
      "ward": 7000,
      "worth": 7001,
      "▁7.": 7002,
      "orn": 7003,
      "inan": 7004,
      "ene": 7005,
      "rest": 7006,
      "ars": 7007,
      "arrow": 7008,
      "arna": 7009,
      "cia.gov/": 7010,
      "[[14": 7011,
      "ation,": 7012,
      "▁India*.": 7013,
      "▁14.": 7014,
      "chol": 7015,
      "21.": 7016,
      "218": 7017,
      "indias": 7018,
      "ver,": 7019,
      "ildlife": 7020,
      "▁David": 7021,
      "-333": 7022,
      "▁2000": 7023,
      "22.": 7024,
      "ly,": 7025,
      "▁Gu": 7026,
      "▁Nadu": 7027,
      "▁Nehru": 7028,
      "▁1962": 7029,
      "ountain": 7030,
      "app": 7031,
      "forest": 7032,
      "▁[*P": 7033,
      "pecial:EditPage/": 7034,
      "ainism": 7035,
      "▁Law": 7036,
      "▁London": 7037,
      "a](https://en.wikipedia.org/wiki/C": 7038,
      "a](https://en.wikipedia.org/wiki/S": 7039,
      "2004),": 7040,
      "co.uk/": 7041,
      "▁life": 7042,
      "▁old": 7043,
      "ublishers": 7044,
      "▁second": 7045,
      "_and_depend": 7046,
      "risti": 7047,
      ".html).": 7048,
      "article/": 7049,
      "aint:": 7050,
      "▁along": 7051,
      "business-": 7052,
      "ilgrim": 7053,
      "](https://en.wikipedia.org/wiki/Oxford": 7054,
      "PK:14": 7055,
      "actbook/": 7056,
      "bhash": 7057,
      "▁estimate": 7058,
      "ootball": 7059,
      "Tarlo1996-26": 7060,
      "Spear1990": 7061,
      "inancial": 7062,
      "0/0": 7063,
      "324": 7064,
      "96": 7065,
      "DPD": 7066,
      "_value": 7067,
      "ather": 7068,
      "ies": 7069,
      "mall": 7070,
      "uin": 7071,
      "enj": 7072,
      "anch": 7073,
      "alakrishn": 7074,
      "ardian": 7075,
      "hief": 7076,
      "▁influ": 7077,
      "**\n": 7078,
      "▁sq": 7079,
      "topic": 7080,
      "ics": 7081,
      "angan": 7082,
      "▁cal": 7083,
      "ush": 7084,
      "urban": 7085,
      "1991": 7086,
      "-38": 7087,
      "▁Bengal": 7088,
      "▁reg": 7089,
      "▁remain": 7090,
      "▁2026": 7091,
      "40px-": 7092,
      "force": 7093,
      "akes": 7094,
      "_Per": 7095,
      "▁Liter": 7096,
      "▁democ": 7097,
      "▁Valley": 7098,
      "times.indiatimes.com/": 7099,
      "▁\"British": 7100,
      "_Broadcasting": 7101,
      "eck": 7102,
      "_Economic": 7103,
      "▁\"Re": 7104,
      "bbc": 7105,
      "▁\"Official": 7106,
      "▁km2": 7107,
      "-of-": 7108,
      "cyclop": 7109,
      "volution": 7110,
      "▁Publications": 7111,
      "economictimes.indiatimes.com/": 7112,
      "▁Studies": 7113,
      ".nih": 7114,
      "entral_In": 7115,
      "-70": 7116,
      "-logo": 7117,
      "-national-language": 7118,
      ".\")\n": 7119,
      ".](https://upload.wikimedia.org/wikipedia/commons/thumb/": 7120,
      "314": 7121,
      "3]](https://en.wikipedia.org/wiki/India#cite_note-FOOTNOTE": 7122,
      "6),": 7123,
      ":C": 7124,
      "Asia": 7125,
      "Be": 7126,
      "Karanth": 7127,
      "US": 7128,
      "_25": 7129,
      "_16": 7130,
      "_46": 7131,
      "_జాబితా": 7132,
      "gAAQBAJ&pg=PA": 7133,
      "ker": 7134,
      "mrits": 7135,
      "ode": 7136,
      "range": 7137,
      "जम्मू": 7138,
      "पि": 7139,
      "भ्यता": 7140,
      "मो": 7141,
      "लों": 7142,
      "शा": 7143,
      "िख": 7144,
      "िम": 7145,
      "ीगढ़": 7146,
      "ॉक": 7147,
      "சரா": 7148,
      "தக்": 7149,
      "தமி": 7150,
      "மல்": 7151,
      "யக": 7152,
      "ரத": 7153,
      "ழக்கு": 7154,
      "வட்ட": 7155,
      "ேற்ற": 7156,
      "ఆంధ": 7157,
      "కీ": 7158,
      "కాలు": 7159,
      "క్రమ": 7160,
      "గర్": 7161,
      "డో": 7162,
      "థి": 7163,
      "నె": 7164,
      "నాలు": 7165,
      "పించ": 7166,
      "బడ్డ": 7167,
      "భర": 7168,
      "మహ": 7169,
      "మై": 7170,
      "యన": 7171,
      "రంగ": 7172,
      "లయా": 7173,
      "వార": 7174,
      "శీ": 7175,
      "షనల్": 7176,
      "స్య": 7177,
      "ృద్ధి": 7178,
      "ెంగ": 7179,
      "ేర": 7180,
      "–18": 7181,
      "–120": 7182,
      "▁ओ": 7183,
      "▁ஈ": 7184,
      "▁ஐக்கிய": 7185,
      "▁దా": 7186,
      "▁Books": 7187,
      "▁నాగరికత": 7188,
      "▁టెక్నాలజీ": 7189,
      "▁[எ": 7190,
      "▁[वि": 7191,
      "▁[सा": 7192,
      "▁[National": 7193,
      "▁\"ग": 7194,
      "▁\"ஐ": 7195,
      "▁\"கா": 7196,
      "en,": 7197,
      "ியது.[[": 7198,
      "alys": 7199,
      "arth": 7200,
      "ம்மு": 7201,
      "ன்\")": 7202,
      "](https://en.wikipedia.org/wiki/V": 7203,
      "▁பங்கள": 7204,
      "▁பூர்வ": 7205,
      "ல்லா": 7206,
      "▁(2006),": 7207,
      "is-": 7208,
      "](https://hi.wikipedia.org/wiki/ल": 7209,
      "▁कु": 7210,
      "్రై": 7211,
      "్రప్రదేశ్": 7212,
      "](https://te.wikipedia.org/wiki/ఢిల్లీ": 7213,
      "rial": 7214,
      "▁மரு": 7215,
      "asing": 7216,
      "asthan": 7217,
      "▁கலைக்களஞ்சியம்": 7218,
      "ed,": 7219,
      "▁தேர்த": 7220,
      "▁தற்போ": 7221,
      "▁सूचना": 7222,
      "lib": 7223,
      "▁வல": 7224,
      "▁வளர்": 7225,
      "▁prin": 7226,
      "▁இப்ப": 7227,
      "▁இவர்": 7228,
      "▁அணி": 7229,
      "▁அளவு": 7230,
      "▁அலுவல்": 7231,
      "▁मध्य": 7232,
      "▁महासागर": 7233,
      "▁SAARC": 7234,
      "ையா": 7235,
      "దేశం": 7236,
      "దేశాల": 7237,
      "దేశాలు": 7238,
      "స్\")": 7239,
      "umeration": 7240,
      "ర్‌": 7241,
      "▁billion": 7242,
      "▁உட": 7243,
      "▁உறவு": 7244,
      "ानव": 7245,
      "டுதலை": 7246,
      "र्ज": 7247,
      "ண்வெளி": 7248,
      "▁Routledge": 7249,
      "itor": 7250,
      "లు?action=edit&redlink=1": 7251,
      "రాఠ": 7252,
      "▁*India": 7253,
      "▁app": 7254,
      "287,26": 7255,
      "▁కి": 7256,
      "▁కో": 7257,
      "క్టో": 7258,
      "▁would": 7259,
      "నియా": 7260,
      "▁వర్": 7261,
      "▁వారస": 7262,
      "கள்\n": 7263,
      "▁जी": 7264,
      "ల్వే": 7265,
      "ालदीव": 7266,
      "▁Europe": 7267,
      "▁సరిహద్దు": 7268,
      "▁दशक": 7269,
      "▁మన": 7270,
      "▁మూ": 7271,
      "159": 7272,
      "▁இந்தியா\")": 7273,
      "ेशन": 7274,
      "ेशिया": 7275,
      "aph": 7276,
      "ற்கால": 7277,
      "ரால்": 7278,
      "ండమా": 7279,
      "▁చిన్న": 7280,
      "తాన": 7281,
      "ముఖ": 7282,
      "▁these": 7283,
      "வால்": 7284,
      "வாய்": 7285,
      "త్వం": 7286,
      "▁(సా.శ.14": 7287,
      "ులు,": 7288,
      "–సా.శ.17": 7289,
      "▁பெண்கள்": 7290,
      "▁ప్రతి": 7291,
      "▁ప్రస్తు": 7292,
      "▁ప్రకారం": 7293,
      "▁ప్రముఖ": 7294,
      "क्षर": 7295,
      "षाण": 7296,
      "ிரிபு": 7297,
      "ంచిన": 7298,
      "కుడు": 7299,
      "▁2011.": 7300,
      "నుమ": 7301,
      "_DS": 7302,
      "ింది.\n": 7303,
      "_Times": 7304,
      "▁రో": 7305,
      "▁రంగ": 7306,
      "▁రవాణా": 7307,
      "▁సాధించ": 7308,
      "ష్టు": 7309,
      "▁शक्ति": 7310,
      "▁शिक्षा": 7311,
      "▁இந்தியத்": 7312,
      "काश": 7313,
      ",_కేంద్రపాలిత": 7314,
      "▁பாலைவன": 7315,
      "தியில்": 7316,
      "▁ஆகும்.[[": 7317,
      "ంతో": 7318,
      "India.pdf)": 7319,
      "▁తరువా": 7320,
      "పాలన": 7321,
      "ंडीगढ़": 7322,
      "த்தியப்": 7323,
      "\"](https://web.archive.org/web/20150": 7324,
      "▁लोग": 7325,
      "ం](https://te.wikipedia.org/wiki/భారతీయ": 7326,
      "arkar": 7327,
      "ுள்ளன.": 7328,
      "గుర్": 7329,
      "నేషనల్": 7330,
      "▁\"Special:BookSources/978-0": 7331,
      "](Special:BookSources/978-0": 7332,
      "ssam": 7333,
      "வியியல்": 7334,
      "▁ప్రాంతం": 7335,
      "▁அரச": 7336,
      "PPC": 7337,
      "▁రాజ్యం](https://te.wikipedia.org/wiki/": 7338,
      "▁क्षेत्रीय": 7339,
      "▁சுல்தான": 7340,
      "వందే": 7341,
      "▁బా": 7342,
      "▁బహు": 7343,
      "▁బెంగ": 7344,
      "▁மேற்க": 7345,
      "▁மூடப்பட்ட": 7346,
      "▁இருந்தது.": 7347,
      "▁पुरा": 7348,
      "கிழக்கு": 7349,
      "▁உருவாக": 7350,
      "▁commun": 7351,
      "outledge?action=edit&redlink=1": 7352,
      "ాల్లో": 7353,
      "▁பெருங்க": 7354,
      "▁ஆகியவற்ற": 7355,
      "▁வாழ": 7356,
      "जनसंख्या": 7357,
      "▁जनसंख्या": 7358,
      "శ్వా": 7359,
      "ారిటీ": 7360,
      "▁वर्ग": 7361,
      "ப்பின": 7362,
      "▁ప్రాంతాలు\")": 7363,
      "గోళ": 7364,
      "நாத்": 7365,
      "நாயக": 7366,
      "బడిన": 7367,
      "తున్న": 7368,
      "న్నిక": 7369,
      "]](https://hi.wikipedia.org/wiki/भारत#cite_note-FOOTNOTEStein1998": 7370,
      "▁స్వాతంత్ర్య": 7371,
      "▁కాలంలో": 7372,
      "▁2020.": 7373,
      "▁அரசியலமைப்பு": 7374,
      "Craven1997),": 7375,
      "_மொழிகள்": 7376,
      "utes": 7377,
      "ంపి": 7378,
      "బెంగాల్": 7379,
      "](https://en.wikipedia.org/wiki/History": 7380,
      "▁Thomas": 7381,
      "urrent": 7382,
      "▁மக்கள்தொகை": 7383,
      "ెలవు": 7384,
      "](https://te.wikipedia.org/wiki/భారతదేశంలో_": 7385,
      "मुख्य": 7386,
      "▁2001](https://ta.wikipedia.org/wiki/இந்தியா#CITEREF": 7387,
      "cript": 7388,
      "▁3,287,26": 7389,
      "த்தரப்": 7390,
      "ப்படுகிறது.[[": 7391,
      "_number": 7392,
      "▁स्थित": 7393,
      "▁అధికారిక": 7394,
      "▁தொகைக்": 7395,
      "Pandit": 7396,
      "ennai": 7397,
      "ఆర్ధిక": 7398,
      "▁పట్టణ": 7399,
      "▁కాశ్మీరు": 7400,
      "▁இரண்டாவது": 7401,
      "ంగ్లీషు": 7402,
      "_அடிப்படையில்_நாடுகளின்_பட்டியல்": 7403,
      "▁[Routledge](https://ta.wikipedia.org/wiki/R": 7404,
      "▁2006](https://en.wikipedia.org/wiki/India#CITEREFMetcalfMetcalf2006),": 7405,
      "त्तराखण्ड": 7406,
      "▁அடர்த்த": 7407,
      "▁అయిన": 7408,
      "▁రెండు": 7409,
      "ాల్దీవులు": 7410,
      "▁அமெரிக்கா": 7411,
      "ట్రో": 7412,
      "ుల్తాన": 7413,
      "రాష్ట్రాలు,_కేంద్రపాలిత": 7414,
      "▁వ్యాసం:": 7415,
      "▁अप्रैल": 7416,
      "हिमाचल": 7417,
      "▁article:": 7418,
      "▁लेख:": 7419,
      "edieval": 7420,
      "ப்பிரிக்கா": 7421,
      "ార్లమెంట": 7422,
      "▁शताब्दी": 7423,
      "▁ఏర్ప": 7424,
      "-language\\_sources\\_(en": 7425,
      "ristian": 7426,
      "mritsar": 7427,
      "ఆంధ్రప్రదేశ్": 7428,
      "లయాళ": 7429,
      "▁பங்களி": 7430,
      "▁[Routledge](https://ta.wikipedia.org/wiki/Routledge?action=edit&redlink=1": 7431,
      "రాష్ట్రాలు,_కేంద్రపాలిత_ప్రాంత": 7432,
      "3).": 7433,
      "41": 7434,
      "Ali": 7435,
      "Aitchison": 7436,
      "March": 7437,
      "SN": 7438,
      "_a_": 7439,
      "ez": 7440,
      "rofile": 7441,
      "ual": 7442,
      "▁go": 7443,
      "▁qu": 7444,
      "dives": 7445,
      "rew": 7446,
      "aldives": 7447,
      "erved": 7448,
      "omb": 7449,
      "ising": 7450,
      "ederal": 7451,
      "etwork": 7452,
      "789": 7453,
      "amili": 7454,
      "▁pe": 7455,
      "agari": 7456,
      "▁Ste": 7457,
      "▁2015.": 7458,
      "▁Report": 7459,
      "_of_India.": 7460,
      "▁Dictionary": 7461,
      "▁where": 7462,
      "▁Economy": 7463,
      "\"](https://web.archive.org/web/20": 7464,
      "-98": 7465,
      "_in_the": 7466,
      "trib": 7467,
      "web.archive.org/web/2009": 7468,
      "▁Ocean": 7469,
      "ains": 7470,
      "aves": 7471,
      "▁Languages": 7472,
      ")[[4": 7473,
      "&pg=PT": 7474,
      "a-b": 7475,
      "%2C_S": 7476,
      "hatt": 7477,
      "news": 7478,
      "▁[British": 7479,
      "▁disc": 7480,
      "athura": 7481,
      "inema": 7482,
      "sport": 7483,
      "▁2010\n": 7484,
      "awahar": 7485,
      "▁range": 7486,
      "-symbols": 7487,
      "national-symbols": 7488,
      "indus": 7489,
      "kingdom": 7490,
      "_1960": 7491,
      "▁Programme": 7492,
      "ritannica": 7493,
      "ampion": 7494,
      "vanagari": 7495,
      "grave": 7496,
      "▁prime": 7497,
      "telligence_Agency": 7498,
      "langoff-1": 7499,
      "b/b": 7500,
      "pectancy": 7501,
      "rakash": 7502,
      "reedom": 7503,
      "entral_Intelligence_Agency": 7504,
      "AliAitchison": 7505,
      "awaharl": 7506,
      "AliAitchison2005": 7507,
      "/we": 7508,
      "748": 7509,
      "8%": 7510,
      ":**": 7511,
      "Alig": 7512,
      "Business": 7513,
      "DR": 7514,
      "Garg": 7515,
      "GDP": 7516,
      "L.": 7517,
      "LS": 7518,
      "MDD": 7519,
      "M50th": 7520,
      "NCL": 7521,
      "XLS": 7522,
      "_g": 7523,
      "_39": 7524,
      "dar": 7525,
      "eers": 7526,
      "ij": 7527,
      "pen": 7528,
      "uil": 7529,
      "–5": 7530,
      "▁z": 7531,
      "▁°": 7532,
      "▁80": 7533,
      "▁[c": 7534,
      "temp": 7535,
      "\")\"": 7536,
      "index": 7537,
      "arsh": 7538,
      "▁(J": 7539,
      "riy": 7540,
      "etro": 7541,
      "▁indi": 7542,
      "▁Court": 7543,
      "ago": 7544,
      "▁Summit\")": 7545,
      "ads": 7546,
      "▁2017.": 7547,
      "2542-5": 7548,
      "▁*A": 7549,
      "▁Department": 7550,
      "a/A": 7551,
      "▁western": 7552,
      "▁employ": 7553,
      "▁Games": 7554,
      "▁[\"H": 7555,
      "a_d": 7556,
      "api": 7557,
      "▁Food": 7558,
      "abh": 7559,
      "▁through": 7560,
      "pecially": 7561,
      "-526": 7562,
      "▁forest": 7563,
      "47.": 7564,
      "384": 7565,
      "%20A": 7566,
      "_Day": 7567,
      "ibet": 7568,
      "▁Press](https://en.wikipedia.org/wiki/Oxford": 7569,
      "a](https://en.wikipedia.org/wiki/K": 7570,
      "_GDP": 7571,
      "▁[Dikshit": 7572,
      "uddhism": 7573,
      "684": 7574,
      "AsherTalbot2006),": 7575,
      "feb": 7576,
      "▁Religion": 7577,
      "▁rate": 7578,
      "_Lank": 7579,
      "on-Alig": 7580,
      "1/DD": 7581,
      "](https://books.google.com/books?id=ZvaGuaJIJgoC&pg=PA": 7582,
      "](https://books.google.com/books?id=kZVuDwAAQBAJ&pg=PA": 7583,
      "poration": 7584,
      "▁member": 7585,
      "IAEXT": 7586,
      "DikshitSchwartzberg2023),": 7587,
      "▁Empire\")": 7588,
      "akhand": 7589,
      "ribution": 7590,
      "S.XLS": 7591,
      "stitution": 7592,
      "ylee": 7593,
      "yanmar": 7594,
      "Provisional_Population_Totals_Paper_1_of_2011_India16": 7595,
      "C-01%20": 7596,
      "C-01/DD": 7597,
      "countries_by_GDP": 7598,
      "censusindia.gov.in/2011census/C-01/DD": 7599,
      "](https://en.wikipedia.org/wiki/South_A": 7600,
      "do-Aryan": 7601,
      "▁minister": 7602,
      "▁2010](https://en.wikipedia.org/wiki/India#CITEREFStein2010),": 7603,
      "ultanate": 7604,
      "ministrative": 7605,
      "nclm.nic.in/shared/linkimages/NCL": 7606,
      "Spear199024": 7607,
      "MDDS.XLS": 7608,
      "M50thReport.pdf)": 7609,
      "2542-5196": 7610,
      "▁Press](https://en.wikipedia.org/wiki/Oxford_University_Press": 7611,
      "on-Aligned": 7612,
      "C-01%20MDDS.XLS": 7613,
      "countries_by_GDP_(": 7614,
      "censusindia.gov.in/2011census/C-01/DDW": 7615,
      "nclm.nic.in/shared/linkimages/NCLM50thReport.pdf)": 7616,
      "\"](http://": 7617,
      "-w": 7618,
      "-24": 7619,
      "-22": 7620,
      "-gen": 7621,
      "1-3": 7622,
      "3]](https://ta.wikipedia.org/wiki/இந்தியா#cite_note-": 7623,
      "4]](https://ta.wikipedia.org/wiki/இந்தியா#cite_note-": 7624,
      "5),": 7625,
      "528": 7626,
      "6]](https://ta.wikipedia.org/wiki/இந்தியா#cite_note-": 7627,
      "8+": 7628,
      "9-6": 7629,
      "Bharat": 7630,
      "European": 7631,
      "Kuiper": 7632,
      "Lear": 7633,
      "Organisation": 7634,
      "PO": 7635,
      "Web": 7636,
      "_राज": 7637,
      "_45": 7638,
      "ading": 7639,
      "ham": 7640,
      "uted": 7641,
      "को": 7642,
      "गत": 7643,
      "गू": 7644,
      "तृत": 7645,
      "म\")": 7646,
      "वल": 7647,
      "श्य": 7648,
      "षय": 7649,
      "हरा": 7650,
      "हित": 7651,
      "िनेमा": 7652,
      "ी.": 7653,
      "ृद्ध": 7654,
      "ेघ": 7655,
      "கோ": 7656,
      "தர": 7657,
      "மல": 7658,
      "மிருந்து": 7659,
      "மேற்கு": 7660,
      "மசுக": 7661,
      "ய்க": 7662,
      "லமை": 7663,
      "ழர்": 7664,
      "ாந்திய": 7665,
      "ேய": 7666,
      "▁end": 7667,
      "orne": 7668,
      "tten": 7669,
      "▁[ग": 7670,
      "▁[சி": 7671,
      "▁[வங்காள": 7672,
      "▁[தேசிய": 7673,
      "▁\"எ": 7674,
      "▁\"ஜ": 7675,
      "▁\"வ": 7676,
      "▁\"ஐக்கிய": 7677,
      "▁\"வங்காள": 7678,
      "▁\"தேசிய": 7679,
      "▁\"तमिल": 7680,
      "ties/": 7681,
      "rel": 7682,
      "](https://ta.wikipedia.org/wiki/ஜ": 7683,
      "ம்ம": 7684,
      "▁பட்ட": 7685,
      "▁பௌத்த": 7686,
      "ல்ப": 7687,
      "ல்வே": 7688,
      "ப்பான்": 7689,
      "1980": 7690,
      "க்கை": 7691,
      "க்கப்படும்": 7692,
      "துரு": 7693,
      "துடுப்பாட்ட": 7694,
      "▁மதிப்ப": 7695,
      "த்தக": 7696,
      "த்தீ": 7697,
      "▁க.": 7698,
      "▁கிட்ட": 7699,
      "educ": 7700,
      "▁தீவு": 7701,
      "▁தீபகற்ப": 7702,
      "▁सक": 7703,
      "\\_of": 7704,
      "ets": 7705,
      "-15": 7706,
      "्यों": 7707,
      "ையான": 7708,
      "los": 7709,
      "க்சி": 7710,
      "▁நபர்": 7711,
      "▁fe": 7712,
      "▁four": 7713,
      "ிரதேசம்": 7714,
      "ாட்டில்": 7715,
      "▁உல": 7716,
      "டுவண்": 7717,
      "unknown": 7718,
      "ண்டும்": 7719,
      "ficient": 7720,
      ".org/wiki": 7721,
      "_தே": 7722,
      "▁अव": 7723,
      "](https://ta.wikipedia.org/wiki/பி": 7724,
      "▁emerg": 7725,
      "▁G.": 7726,
      "▁\"பி": 7727,
      "-981": 7728,
      "▁प्रेस": 7729,
      "▁प्रौद्योगिक": 7730,
      "्वतंत्रता": 7731,
      "ishing": 7732,
      "ாலும்": 7733,
      "த்துக்கு": 7734,
      "▁[Sharma": 7735,
      "▁குகை": 7736,
      "▁L.": 7737,
      "▁व्य": 7738,
      "▁*[ப": 7739,
      "வினை": 7740,
      "▁உள்ளிட்ட": 7741,
      "▁2011](https://ta.wikipedia.org/wiki/இந்தியா#CITEREF": 7742,
      "own": 7743,
      "49-2": 7744,
      "undament": 7745,
      "](https://ta.wikipedia.org/wiki/இந்தியக்_": 7746,
      "ற்பத்தி": 7747,
      "▁शु": 7748,
      "▁புது": 7749,
      "▁संसद": 7750,
      "neworld": 7751,
      "ங்கள்,": 7752,
      "ियार": 7753,
      "](https://ta.wikipedia.org/wiki/முகலாய": 7754,
      "▁பிராந்திய": 7755,
      "_அமைப்பு": 7756,
      "▁differ": 7757,
      "க்கித்தான்": 7758,
      "க்கிப்பீ": 7759,
      "கிறது.[[": 7760,
      "▁लोक": 7761,
      "▁\"கேம்பிறிட்ஜ்": 7762,
      "▁राज्य\")": 7763,
      "▁[கேம்பிறிட்ஜ்": 7764,
      "erala": 7765,
      "](https://ta.wikipedia.org/wiki/கேம்பிறிட்ஜ்": 7766,
      "हाय": 7767,
      "परमाणु": 7768,
      "ोलन": 7769,
      "▁மேற்பட்ட": 7770,
      "▁Review": 7771,
      "▁மூன்றா": 7772,
      "▁இருந்தது.[[": 7773,
      "▁US": 7774,
      "ेली": 7775,
      "▁பதிப்பகம்](https://ta.wikipedia.org/wiki/கேம்பிறிட்ஜ்": 7776,
      "கித": 7777,
      "▁2007\n": 7778,
      "▁நடனம்": 7779,
      "▁[இல": 7780,
      "வரலா": 7781,
      "▁जाती": 7782,
      "ிழக்கா": 7783,
      "▁राजवंश": 7784,
      "▁स्था": 7785,
      "▁स्थान": 7786,
      "ज्ज": 7787,
      "illenni": 7788,
      "▁தலைமை": 7789,
      "arliest": 7790,
      "cms)": 7791,
      "_உற்பத்தி": 7792,
      "▁வரைய": 7793,
      "▁[3](https://ta.wikipedia.org/wiki/இந்தியா#cite_ref-FOOTNOTE": 7794,
      "▁இலட்ச": 7795,
      "▁இதற்கு": 7796,
      "▁நாடாக": 7797,
      "_நாடுகள்": 7798,
      "▁प्राचीन": 7799,
      "▁பகுதியாக": 7800,
      "▁ed.).": 7801,
      "▁உருவாக்கப்பட்ட": 7802,
      "▁था।": 7803,
      "▁धर्म\")": 7804,
      "க்_கா": 7805,
      "ece)": 7806,
      "க்கோபார்": 7807,
      "▁விளையாட்டுப்": 7808,
      "▁செய்த": 7809,
      "னைத்துலக": 7810,
      "▁(identifier)\"):[10.": 7811,
      "ांग्लादेश": 7812,
      "ஜி-20": 7813,
      "_to_the": 7814,
      "](https://doi.org/10.": 7815,
      "content/": 7816,
      ".htm)": 7817,
      "-415-3": 7818,
      "▁நுட்ப": 7819,
      "▁ஆண்டின்": 7820,
      "text": 7821,
      "_Force": 7822,
      "महाद्वीप": 7823,
      "▁குடியரசுத்": 7824,
      "ரசியல்": 7825,
      "▁\"हिन्दी\")": 7826,
      "▁இதுவாகும்.": 7827,
      "▁1994](https://ta.wikipedia.org/wiki/இந்தியா#CITEREF": 7828,
      "Ministry_of_Home_Affairs": 7829,
      "▁முக்கியமான": 7830,
      "▁\"Routledge\"),": 7831,
      "▁திரைப்படத்துறை\"),": 7832,
      "▁पहले": 7833,
      "ssociation": 7834,
      "▁குறிப்பிடத்தக்க": 7835,
      "▁[हिन्दी](https://hi.wikipedia.org/wiki/हिन्दी": 7836,
      "▁चुनावों": 7837,
      "data.worldbank.org/indicator/S": 7838,
      "▁सैन्य": 7839,
      "▁நான்க": 7840,
      "க்கிப்பீடியா": 7841,
      "▁பதிப்பகம்](https://ta.wikipedia.org/wiki/கேம்பிறிட்ஜ்_பல்கலைக்கழகப்_பதிப்பகம்": 7842,
      "Ministry_of_Home_Affairs_1960": 7843,
      "-the-": 7844,
      "4),": 7845,
      "5).": 7846,
      "537": 7847,
      "E﻿": 7848,
      "Ge": 7849,
      "He": 7850,
      "IL": 7851,
      "_8": 7852,
      "_28": 7853,
      "_rec": 7854,
      "equality": 7855,
      "iz": 7856,
      "law": 7857,
      "other": 7858,
      "tl": 7859,
      "wAAQBAJ&pg=PA": 7860,
      "–70": 7861,
      "▁78": 7862,
      "orship": 7863,
      "](Category:": 7864,
      "▁[m": 7865,
      "▁[University": 7866,
      "▁[World": 7867,
      "▁\"University": 7868,
      "arendra": 7869,
      "cific": 7870,
      "▁(India": 7871,
      "19.": 7872,
      "▁off": 7873,
      "\\_containing\\_": 7874,
      "et/": 7875,
      "lima": 7876,
      "▁Central": 7877,
      "▁Californi": 7878,
      "sig": 7879,
      "adwe": 7880,
      "▁far": 7881,
      "raz": 7882,
      "urs": 7883,
      "▁Territory": 7884,
      "ilbert": 7885,
      "11.": 7886,
      "▁Nuclear": 7887,
      "1857": 7888,
      "15.": 7889,
      "ountries": 7890,
      "▁house": 7891,
      "▁[*M": 7892,
      "akar": 7893,
      "*](https://archive.org/details/": 7894,
      "geoh": 7895,
      "_Air": 7896,
      "▁near": 7897,
      "▁Wall": 7898,
      "gions": 7899,
      "37.": 7900,
      "▁\"Category:": 7901,
      "▁dec": 7902,
      "a](https://en.wikipedia.org/wiki/A": 7903,
      "_population": 7904,
      "ultur": 7905,
      "-market": 7906,
      "_East_Asia_Summit": 7907,
      "bbc.": 7908,
      "▁technology": 7909,
      "attle": 7910,
      "](https://en.wikipedia.org/wiki/Economy_of_": 7911,
      "_des": 7912,
      "▁right": 7913,
      "e/e": 7914,
      "AARC_summit": 7915,
      "formance": 7916,
      "rahmap": 7917,
      "▁Companion": 7918,
      "▁groups": 7919,
      "▁(2014).": 7920,
      "▁mi)": 7921,
      "akshadwe": 7922,
      "Jha2018": 7923,
      "rajbhash": 7924,
      "Xavier": 7925,
      "▁California": 7926,
      "geohack": 7927,
      "rahmaputra": 7928,
      "akshadweep": 7929,
      ".7": 7930,
      "/).": 7931,
      "09": 7932,
      "1)[[": 7933,
      "7C": 7934,
      "BE": 7935,
      "Central_Intelligence_Agency": 7936,
      "LD": 7937,
      "RA": 7938,
      "_U": 7939,
      "_2009": 7940,
      "_Ro": 7941,
      "_43": 7942,
      "ful": 7943,
      "gu": 7944,
      "hmed": 7945,
      "jec": 7946,
      "m.nih": 7947,
      "rat": 7948,
      "tar": 7949,
      "tool": 7950,
      "u,": 7951,
      "▁web": 7952,
      "▁60": 7953,
      "▁urban": 7954,
      "ortheast": 7955,
      "▁[Robb": 7956,
      "hild": 7957,
      "nold": 7958,
      "aten": 7959,
      "stru": 7960,
      "▁Sec": 7961,
      "▁Survey": 7962,
      "adh": 7963,
      "adra": 7964,
      "\"),[[": 7965,
      "▁People": 7966,
      "▁summit": 7967,
      "ume": 7968,
      "▁movement": 7969,
      "_of_S": 7970,
      "▁Te": 7971,
      "▁Trade": 7972,
      "▁Home": 7973,
      "a_Empire": 7974,
      "▁last": 7975,
      "169": 7976,
      "imach": 7977,
      "▁Lank": 7978,
      "_Co-operation": 7979,
      "_and_T": 7980,
      "▁Kingdom": 7981,
      "rchitecture": 7982,
      "▁within": 7983,
      "arden": 7984,
      "_128": 7985,
      "_Games": 7986,
      "enguin": 7987,
      "efficient": 7988,
      "svar": 7989,
      "qui": 7990,
      "▁State": 7991,
      "_the_": 7992,
      "bi.nl": 7993,
      "▁addition": 7994,
      "▁[*An": 7995,
      "-of-india-": 7996,
      "▁[978-0-8": 7997,
      "▁Art": 7998,
      "▁across": 7999,
      "▁2024.": 8000,
      "ece).": 8001,
      "▁Short": 8002,
      "ksai": 8003,
      "▁especially": 8004,
      "vidence": 8005,
      "_for_Economic": 8006,
      "icobar": 8007,
      "▁Plateau": 8008,
      "citation": 8009,
      "uthority": 8010,
      "ncbi.nl": 8011,
      "express.com/": 8012,
      "8+5": 8013,
      "education": 8014,
      "_Co-operation_and_Development": 8015,
      "_for_Economic_Co-operation_and_Development": 8016,
      "ncbi.nlm.nih": 8017,
      "\">": 8018,
      ")](https://te.wikipedia.org/wiki/దస్త్రం:": 8019,
      ".doi.org/": 8020,
      "0/": 8021,
      "1-8": 8022,
      "3)[[": 8023,
      "336": 8024,
      "4).": 8025,
      "6.\n": 8026,
      "7]](https://ta.wikipedia.org/wiki/இந்தியா#cite_note-": 8027,
      "7)[[": 8028,
      "9)\n": 8029,
      ";<": 8030,
      "</": 8031,
      "Bangalore": 8032,
      "CCN": 8033,
      "E%": 8034,
      "EB": 8035,
      "Tab": 8036,
      "_घ": 8037,
      "_द": 8038,
      "_ஒ": 8039,
      "_వి": 8040,
      "_2019": 8041,
      "_India.jpg": 8042,
      "_కాశ్మీ": 8043,
      "aury": 8044,
      "bser": 8045,
      "hang": 8046,
      "i>": 8047,
      "iw": 8048,
      "ovi": 8049,
      "pi": 8050,
      "rban": 8051,
      "s:": 8052,
      "yri": 8053,
      "ंत": 8054,
      "अभि": 8055,
      "क्": 8056,
      "खन": 8057,
      "गान": 8058,
      "ग्व": 8059,
      "च्": 8060,
      "जं": 8061,
      "टान": 8062,
      "थिल": 8063,
      "दार": 8064,
      "फोर्ड": 8065,
      "ब्ल": 8066,
      "बेट": 8067,
      "भु": 8068,
      "मु": 8069,
      "यत": 8070,
      "यर": 8071,
      "रत": 8072,
      "वास": 8073,
      "ेड": 8074,
      "ैंक": 8075,
      "ैथिल": 8076,
      "ॉल": 8077,
      "ॉंग्रेस": 8078,
      "ोस": 8079,
      "ौसेना": 8080,
      "१८": 8081,
      "२००": 8082,
      "கால": 8083,
      "கனாமி": 8084,
      "சார்": 8085,
      "தான": 8086,
      "திர": 8087,
      "ப்க": 8088,
      "படை": 8089,
      "மின்": 8090,
      "யண": 8091,
      "யில": 8092,
      "யநகர": 8093,
      "ரின்": 8094,
      "ரங்க": 8095,
      "றாக": 8096,
      "லிருந்து": 8097,
      "லங்கா": 8098,
      "ழந்தை": 8099,
      "வர்\")": 8100,
      "ைச்": 8101,
      "ோக்": 8102,
      "ంస్కృ": 8103,
      "ఉత్తరా": 8104,
      "ఖో": 8105,
      "ఘాలయ": 8106,
      "చ్": 8107,
      "టై": 8108,
      "టర్": 8109,
      "డమ్": 8110,
      "డఖ్": 8111,
      "ణే": 8112,
      "ణంగా": 8113,
      "తే": 8114,
      "తెల": 8115,
      "దరంగ": 8116,
      "నో": 8117,
      "నంద": 8118,
      "బర్": 8119,
      "బార్": 8120,
      "యె": 8121,
      "రె": 8122,
      "లడఖ్": 8123,
      "ళా": 8124,
      "ళి": 8125,
      "శు": 8126,
      "హించ": 8127,
      "ుకు": 8128,
      "ెన్న": 8129,
      "ెట్రో": 8130,
      "ేతి": 8131,
      "ేఘాలయ": 8132,
      "ైనిక": 8133,
      "ొగలు": 8134,
      "ోళ": 8135,
      "‌కా": 8136,
      "‌మహ": 8137,
      "▁`": 8138,
      "▁ఐ": 8139,
      "▁ఖ": 8140,
      "▁–సా.శ.": 8141,
      "▁భారతీయ": 8142,
      "▁ईसा": 8143,
      "▁దినోత్స": 8144,
      "ors": 8145,
      "](https://dx": 8146,
      "▁[ड": 8147,
      "▁[ल": 8148,
      "▁[రాష్ట్ర": 8149,
      "▁[జన": 8150,
      "▁[గో": 8151,
      "▁[ஐக்கிய": 8152,
      "▁[दक्षिण": 8153,
      "▁[पाकिस्तान": 8154,
      "▁\"పా": 8155,
      "▁\"జన": 8156,
      "▁\"గో": 8157,
      "▁\"दक्षिण": 8158,
      "▁\"మూస:": 8159,
      "▁\"இந்து": 8160,
      "▁\"पाकिस्तान": 8161,
      "▁\"எண்ணிம": 8162,
      "ines": 8163,
      "ியூ": 8164,
      "ியும்": 8165,
      "thang": 8166,
      "alam": 8167,
      "ந்தைய": 8168,
      "ந்தது.[[": 8169,
      "arbar": 8170,
      "](https://ta.wikipedia.org/wiki/எ": 8171,
      "](https://ta.wikipedia.org/wiki/சி": 8172,
      "](https://ta.wikipedia.org/wiki/கா": 8173,
      "India_G": 8174,
      "ன்சு": 8175,
      "▁பிரித்தானிய": 8176,
      "▁(2008": 8177,
      "](https://hi.wikipedia.org/wiki/न": 8178,
      "](https://hi.wikipedia.org/wiki/पाकिस्तान": 8179,
      "க்கில்": 8180,
      "](https://te.wikipedia.org/wiki/G": 8181,
      "](https://te.wikipedia.org/wiki/భారతదేశ": 8182,
      "](https://te.wikipedia.org/wiki/గో": 8183,
      "](https://te.wikipedia.org/wiki/మూస:": 8184,
      "▁மறை": 8185,
      "-0\")\n": 8186,
      "ారస్వ": 8187,
      "भारत)": 8188,
      "▁தன்": 8189,
      "▁தங்கள": 8190,
      "▁தகவல்": 8191,
      "ருக்கு": 8192,
      "▁साल": 8193,
      "[[Category:": 8194,
      "▁வள": 8195,
      "▁வில": 8196,
      "▁வில்லி": 8197,
      "FOOTNOTENational_Informatics_Centre2005": 8198,
      "▁Civil": 8199,
      "ాలె": 8200,
      "▁அன்": 8201,
      "▁அழி": 8202,
      "▁मो": 8203,
      "▁मौ": 8204,
      "▁Singh": 8205,
      "ப்புச்": 8206,
      "▁100": 8207,
      "▁12.": 8208,
      "ையுடைய": 8209,
      "well": 8210,
      "▁நவீன": 8211,
      "స్ట": 8212,
      "స్వాతంత్ర్య": 8213,
      "राम": 8214,
      "▁పర": 8215,
      "▁పండు": 8216,
      "ultures": 8217,
      "ிரஸ்": 8218,
      "▁சொ": 8219,
      "▁சன்ஸ்": 8220,
      "▁class": 8221,
      "▁ஆவணச்": 8222,
      "](https://hi.wikipedia.org/wiki/भारत_के": 8223,
      "urasi": 8224,
      "లు](https://te.wikipedia.org/wiki/": 8225,
      "269,": 8226,
      "రాన్": 8227,
      "రాస్య": 8228,
      ".jpe": 8229,
      "▁కే": 8230,
      "▁కోర్": 8231,
      "குடா": 8232,
      "త్రిక": 8233,
      "▁[↑](https://ta.wikipedia.org/wiki/இந்தியா#cite_ref-Combined": 8234,
      "క్స్": 8235,
      "క్కి": 8236,
      "▁వె": 8237,
      "▁వంట": 8238,
      "கள்,": 8239,
      "olence": 8240,
      "▁economy": 8241,
      "_की_": 8242,
      "opal": 8243,
      "▁[\"In": 8244,
      "ంగో": 8245,
      "▁సముద్ర": 8246,
      "▁సూచ": 8247,
      "▁సౌక": 8248,
      "▁இந்தியா](https://ta.wikipedia.org/wiki/தி_": 8249,
      "sehl": 8250,
      "్రామ": 8251,
      "ండా": 8252,
      "ండీ": 8253,
      "ండ్య": 8254,
      "ंगाना": 8255,
      "▁भारत\")": 8256,
      ".in)\n": 8257,
      "_in_T": 8258,
      "_in_March": 8259,
      "▁\"St": 8260,
      "abha": 8261,
      "abase": 8262,
      "తాజ్": 8263,
      "నాథ": 8264,
      "_Par": 8265,
      "త్వా": 8266,
      "▁On": 8267,
      "▁Organization": 8268,
      "_An": 8269,
      "▁(సా.శ.16": 8270,
      "▁குறு": 8271,
      "ులు?action=edit&redlink=1": 8272,
      "▁అభి": 8273,
      "காதமி": 8274,
      "ம்பட்டியல்": 8275,
      "▁ప్రజా": 8276,
      "▁[↑](https://ta.wikipedia.org/wiki/இந்தியா#cite_ref-FOOTNOTEM": 8277,
      "తం?action=edit&redlink=1": 8278,
      "▁आर्थिक": 8279,
      "▁உள்ளன.[[": 8280,
      "పూర్": 8281,
      "ప్రిల్": 8282,
      "▁விளைய": 8283,
      "39-4": 8284,
      "45)": 8285,
      "_of_India?action=edit&redlink=1": 8286,
      "▁ఉంట": 8287,
      "▁ఉత్తర": 8288,
      "ல்கள": 8289,
      "▁இருக்க": 8290,
      "ड़ियाँ": 8291,
      "▁సామా": 8292,
      "gov.in": 8293,
      "_மக்கள": 8294,
      "వాద": 8295,
      "▁उन": 8296,
      "ார்.[[": 8297,
      "]](https://en.wikipedia.org/wiki/India#cite_note-FOOTNOTEMetcalfMetcalf2006": 8298,
      "విధ": 8299,
      "ార్ఖండ్": 8300,
      "క్షరాస్య": 8301,
      "லைக்காட்சி": 8302,
      "ossehl": 8303,
      "काता": 8304,
      "-106": 8305,
      "▁इंडिया": 8306,
      "மிச": 8307,
      "-population": 8308,
      "ी](https://hi.wikipedia.org/wiki/द": 8309,
      "పుర": 8310,
      "▁నడి": 8311,
      "▁பிரதி": 8312,
      "_அமை": 8313,
      "▁ఇండియా": 8314,
      "▁அமைச்சகம்": 8315,
      "_November": 8316,
      "ंडोन": 8317,
      "ஞ்சி": 8318,
      "▁\"தில்லி": 8319,
      "க்கிந்திய": 8320,
      "world-asi": 8321,
      "_Ram": 8322,
      "▁[தெ": 8323,
      "▁[தொ": 8324,
      "ச்சினை": 8325,
      "▁राज्यक्षेत्र": 8326,
      "ட்டிகள்": 8327,
      "ப்படுத்த": 8328,
      "▁विस्त": 8329,
      "▁विदेश": 8330,
      "గుప్": 8331,
      "డుకు": 8332,
      "నేషియా": 8333,
      "▁79.": 8334,
      "▁காற்று": 8335,
      "ంగాణ": 8336,
      "▁జన": 8337,
      "▁வெப்ப": 8338,
      "▁வெளி": 8339,
      "▁வெற்றி": 8340,
      "▁வெளிய": 8341,
      "లియా": 8342,
      "shis": 8343,
      "▁ప్రాచ": 8344,
      "▁విభ": 8345,
      "▁వివిధ": 8346,
      "ंग्रेजी": 8347,
      "ोलकाता": 8348,
      "▁సంఘ": 8349,
      "_ஆஃப்": 8350,
      "_ஆவணச்": 8351,
      "ंध्र": 8352,
      "▁अन्त": 8353,
      "▁क्षेत्रों": 8354,
      "▁சுட்டி\")": 8355,
      "ండిచ్చేరి": 8356,
      "pril_20": 8357,
      "▁नेतृत": 8358,
      "केन्द्र": 8359,
      "▁\"अंग्रेज़ी": 8360,
      "visions": 8361,
      "▁நீடி": 8362,
      "జీరియా": 8363,
      "ureau": 8364,
      "▁1500": 8365,
      "ంకేతి": 8366,
      "▁देश\")": 8367,
      "▁जनवरी": 8368,
      "▁change": 8369,
      "వేలీ": 8370,
      "हरिया": 8371,
      "ूर्वी": 8372,
      "पुरम": 8373,
      "▁मेला\"),": 8374,
      "ervice": 8375,
      "▁தேர்ந்த": 8376,
      "Articles\\_containing\\_": 8377,
      "ंग्रेज़ी_भाषा": 8378,
      "िशा": 8379,
      "బియా": 8380,
      "Chennai": 8381,
      "▁ஏற்பட்ட": 8382,
      "▁\"இல": 8383,
      "▁குறிப்பாக": 8384,
      "డామన్": 8385,
      "▁రాష్ట్రపతి": 8386,
      "▁२०१": 8387,
      "త్రిపుర": 8388,
      "டைம்ஸ்_ஆஃப்": 8389,
      "_కాల": 8390,
      "समिया": 8391,
      "▁2017.\n": 8392,
      "▁రైల్వే": 8393,
      "ज्ञाप": 8394,
      "య్యూ": 8395,
      "न्नई": 8396,
      "త్తీస్": 8397,
      "▁ప్రదేశ్](https://te.wikipedia.org/wiki/": 8398,
      "](https://en.wikipedia.org/wiki/Indian_": 8399,
      "बंधन": 8400,
      "నాగాలా": 8401,
      "countries_and_depend": 8402,
      "▁पुरालेखित।,": 8403,
      "▁\"జమ్మూ": 8404,
      "](https://ta.wikipedia.org/wiki/இல": 8405,
      "வற்றின்": 8406,
      "▁పాకిస్తాన్": 8407,
      "ெருக்க": 8408,
      "కోవ": 8409,
      "కోబార్": 8410,
      "](https://te.wikipedia.org/wiki/జమ్మూ": 8411,
      "ల్లవ": 8412,
      "▁<https://www.": 8413,
      "▁Publishing\"),": 8414,
      "1947)": 8415,
      "▁பெரும்பான்": 8416,
      "▁मानसून": 8417,
      "_और_संघ": 8418,
      "▁युग": 8419,
      "▁மூலம்": 8420,
      "encies_by": 8421,
      "रक्षा": 8422,
      "वादी": 8423,
      "119–120": 8424,
      "வடகிழக்கு": 8425,
      "▁स्वतंत्रता": 8426,
      "_के_आधार_पर_भारत_के_राज्यों_की_सूची": 8427,
      "तेलंगाना": 8428,
      "రేబియా": 8429,
      "▁about": 8430,
      "▁என்பது": 8431,
      "▁ஆண்டில்": 8432,
      "ataraj": 8433,
      "టాక్": 8434,
      "▁మాత్ర": 8435,
      "్రిటిష్": 8436,
      "▁Arab": 8437,
      "चेन्नई": 8438,
      "▁பண்பாடு": 8439,
      "▁बहुत": 8440,
      "▁துணைக்கண்ட": 8441,
      "▁பொருட்கள்": 8442,
      "_Commission": 8443,
      "వెను": 8444,
      "ూచి": 8445,
      "భారతదేశ_రాష్ట్రాలు,_కేంద్రపాలిత_ప్రాంత": 8446,
      "etary_Fund": 8447,
      "पीठ": 8448,
      "▁நாணய": 8449,
      "_சுட்டி": 8450,
      "எண்ணிம_ஆவணச்": 8451,
      "க்கிண்ணம்": 8452,
      "ప్పటిక": 8453,
      "ப்படுகின்றன.[[": 8454,
      "▁(1,269,": 8455,
      "లేషియా": 8456,
      "▁మొదల": 8457,
      "▁[doi](https://ta.wikipedia.org/wiki/எண்ணிம_ஆவணச்": 8458,
      "क्सफोर्ड": 8459,
      "ண்களுக்கு": 8460,
      "▁நீதிமன்ற": 8461,
      "▁निर्माण": 8462,
      "Taj_Mahal": 8463,
      "ద్యు": 8464,
      "त्रिपुरा": 8465,
      "▁చిత్ర": 8466,
      "ద్వీప్": 8467,
      "▁ఉపఖండ": 8468,
      "▁దేశంలోని": 8469,
      "▁కాంగ్రెసు": 8470,
      "ில்லியன்": 8471,
      "_Publishing?action=edit&redlink=1": 8472,
      "ఆగష్టు": 8473,
      "లక్షద్వీప్": 8474,
      "హాయం:": 8475,
      "ీకరణ": 8476,
      "ోల్‌కా": 8477,
      "](https://ta.wikipedia.org/wiki/உலக_வ": 8478,
      "మిజోరా": 8479,
      "▁கட்டுரை:": 8480,
      "तेलुगू": 8481,
      "▁dependencies": 8482,
      "லையாள": 8483,
      "▁பிரபல": 8484,
      "▁வேறுபட்ட": 8485,
      "भीमबेट": 8486,
      "झारखंड": 8487,
      "ర్యానా": 8488,
      "▁[ఢిల్లీ](https://te.wikipedia.org/wiki/ఢిల్లీ": 8489,
      "▁உள்ளடக்கிய": 8490,
      "_Monetary_Fund": 8491,
      "టిబెట్": 8492,
      "మెరికా": 8493,
      "ல்வகைமை": 8494,
      "छत्तीसगढ़": 8495,
      "िंधु": 8496,
      "▁मुख्य": 8497,
      "ணிப்புரி": 8498,
      "ब्बत": 8499,
      "▁[अंग्रेज़ी](https://hi.wikipedia.org/wiki/अंग्रेज़ी_भाषा": 8500,
      "బడ్డీ": 8501,
      "ేరళ": 8502,
      "▁ओर": 8503,
      "▁பூர்வீ": 8504,
      "▁कुछ": 8505,
      "్రైస్త": 8506,
      "▁தற்போது": 8507,
      "ండమాన్": 8508,
      "ెలవుదిన": 8509,
      "amilies": 8510,
      "sports/": 8511,
      "_Lanka": 8512,
      "_தேசிய": 8513,
      "▁(India)\")": 8514,
      "अभिज्ञाप": 8515,
      "च्छ": 8516,
      "லங்காணா": 8517,
      "తెలంగాణ": 8518,
      "ెన్నై": 8519,
      "‌మహల్": 8520,
      "](https://dx.doi.org/": 8521,
      "India_Go": 8522,
      "▁இந்தியா](https://ta.wikipedia.org/wiki/தி_டைம்ஸ்_ஆஃப்": 8523,
      "_in_March_2004": 8524,
      "తాజ్‌మహల్": 8525,
      "క్షరాస్యత": 8526,
      "world-asia-": 8527,
      "▁சுட்டி\"):[": 8528,
      "▁தேர்ந்தெடு": 8529,
      "నాగాలాండ్": 8530,
      "countries_and_dependencies_by": 8531,
      "](https://te.wikipedia.org/wiki/జమ్మూ_కాశ్మీ": 8532,
      "▁[doi](https://ta.wikipedia.org/wiki/எண்ணிம_ஆவணச்_சுட்டி": 8533,
      "Taj_Mahal_in_March_2004": 8534,
      "ోల్‌కాతా": 8535,
      "भीमबेटका": 8536,
      "अभिज्ञापक": 8537,
      "▁இந்தியா](https://ta.wikipedia.org/wiki/தி_டைம்ஸ்_ஆஃப்_இந்தியா": 8538,
      ",4": 8539,
      "-r": 8540,
      "-li": 8541,
      "01": 8542,
      "370": 8543,
      "8,": 8544,
      ":IN": 8545,
      "BBC": 8546,
      "Clémentin-Ojha": 8547,
      "HA": 8548,
      "Nehru": 8549,
      "aid": 8550,
      "eub": 8551,
      "each": 8552,
      "ogo": 8553,
      "pB": 8554,
      "pro": 8555,
      "q9": 8556,
      "spec": 8557,
      "utical": 8558,
      "–10": 8559,
      "▁ge": 8560,
      "ences": 8561,
      "ont": 8562,
      "2025": 8563,
      "title": 8564,
      "hip": 8565,
      "ouli": 8566,
      "20011": 8567,
      "rig": 8568,
      "edor": 8569,
      "eded": 8570,
      "ids": 8571,
      "agen": 8572,
      "-0)\n": 8573,
      "india_": 8574,
      "indiab": 8575,
      "▁can": 8576,
      "raw": 8577,
      "▁Muslim": 8578,
      "istorical": 8579,
      "-45": 8580,
      "-438": 8581,
      "-345": 8582,
      "igved": 8583,
      "113": 8584,
      "architecture": 8585,
      "▁Health": 8586,
      "_in_B": 8587,
      "▁[*F": 8588,
      "ability": 8589,
      "avin": 8590,
      "▁ne": 8591,
      "469": 8592,
      "_Data_": 8593,
      "▁gen": 8594,
      "gional": 8595,
      "%2C5": 8596,
      "ender": 8597,
      "ogni": 8598,
      "hina": 8599,
      "_Nadu": 8600,
      "_subcontinent": 8601,
      "\"](https://www.britannica.com/": 8602,
      "▁[Government": 8603,
      "valid": 8604,
      "aceutical": 8605,
      "ramouli": 8606,
      "ashmiri": 8607,
      "amil_Nadu": 8608,
      "uropean_": 8609,
      "▁2016.\n": 8610,
      "▁Prospec": 8611,
      "fication": 8612,
      "IAF": 8613,
      "▁use": 8614,
      "▁wide": 8615,
      "strument": 8616,
      "Ludden2014": 8617,
      "%7c%7c": 8618,
      ".svg/40px-": 8619,
      "owever,": 8620,
      "▁(ed.).": 8621,
      "▁including": 8622,
      "harmaceutical": 8623,
      "▁(c)": 8624,
      "\\_country\\_with\\_": 8625,
      "alakrishnan": 8626,
      "▁called": 8627,
      "\\_of\\_": 8628,
      "bbc.co.uk/": 8629,
      "_for_Economic_Co-operation_and_Development_2007": 8630,
      "Clémentin-Ojha2014": 8631,
      "euborne": 8632,
      "▁Prospects": 8633,
      "1)\n": 8634,
      "7)\n": 8635,
      "CD": 8636,
      "Kathak": 8637,
      "LO": 8638,
      "Mumbai": 8639,
      "_22": 8640,
      "imon": 8641,
      "nus": 8642,
      "ott": 8643,
      "sur": 8644,
      "ta": 8645,
      "udu": 8646,
      "voy": 8647,
      "–13": 8648,
      "▁5.": 8649,
      "▁hist": 8650,
      "onom": 8651,
      "til": 8652,
      "](https://en.wikipedia.org/wiki/United": 8653,
      "istered": 8654,
      "\\_or": 8655,
      "▁prac": 8656,
      "▁painting": 8657,
      "standard": 8658,
      "cherry": 8659,
      "00C-01%20MDDS.XLS": 8660,
      "ulp": 8661,
      "▁cre": 8662,
      "▁col": 8663,
      "ravi": 8664,
      ".[[4": 8665,
      "▁*2011": 8666,
      "▁air": 8667,
      "▁Day": 8668,
      "beral": 8669,
      "igration": 8670,
      "▁east": 8671,
      "▁event": 8672,
      "▁2025": 8673,
      "16)": 8674,
      "16.": 8675,
      "27.": 8676,
      "rynus": 8677,
      "▁though": 8678,
      "39.": 8679,
      "▁[Ar": 8680,
      "▁Vol": 8681,
      "34238": 8682,
      "▁\"BBC": 8683,
      "anipur": 8684,
      "▁[↑](https://en.wikipedia.org/wiki/India#cite_ref-FOOTNOTEMetcalfMetcalf2006": 8685,
      "ecu": 8686,
      "Dwyer": 8687,
      "▁1990": 8688,
      "general_": 8689,
      "▁Urdu": 8690,
      "▁\"Indo-": 8691,
      "](https://en.wikipedia.org/wiki/Re": 8692,
      "Chand": 8693,
      "▁known": 8694,
      "urity": 8695,
      "](https://en.wikipedia.org/wiki/Indo-": 8696,
      "▁See": 8697,
      "uttaph": 8698,
      "-report": 8699,
      "▁around": 8700,
      "issn": 8701,
      "a.gov.in/": 8702,
      "▁coast": 8703,
      "epartment_of_": 8704,
      "_term": 8705,
      "11934238": 8706,
      "place": 8707,
      "Raju": 8708,
      "▁Buddhist": 8709,
      "PPP)": 8710,
      "Uttarakhand": 8711,
      "%3D": 8712,
      "▁Conservation": 8713,
      "worldcat.org/issn": 8714,
      "olonial": 8715,
      "censusindia.gov.in/2011census/C-01/DDW00C-01%20MDDS.XLS": 8716,
      "illennium": 8717,
      "uducherry": 8718,
      "Dwyer2014": 8719,
      "general_election": 8720,
      "uttaphrynus": 8721,
      "11934238p": 8722,
      "%ஆக": 8723,
      "-உ": 8724,
      "/R": 8725,
      ";[[": 8726,
      "AC": 8727,
      "EM": 8728,
      "F)": 8729,
      "Political": 8730,
      "Republic": 8731,
      "YS": 8732,
      "Young": 8733,
      "\\*": 8734,
      "_इ": 8735,
      "_श": 8736,
      "_धर्म": 8737,
      "fun": 8738,
      "hra": 8739,
      "ob": 8740,
      "paper": 8741,
      "sci": 8742,
      "went": 8743,
      "yth": 8744,
      "ँची": 8745,
      "अंग्रेज़ी": 8746,
      "उप": 8747,
      "एन": 8748,
      "टना": 8749,
      "तन": 8750,
      "द्वार": 8751,
      "पार": 8752,
      "भग": 8753,
      "मरी": 8754,
      "रि": 8755,
      "स्व": 8756,
      "ेद": 8757,
      "ोला": 8758,
      "கத": 8759,
      "கத்தின்": 8760,
      "சன": 8761,
      "சார": 8762,
      "டது": 8763,
      "டராச": 8764,
      "நி": 8765,
      "நாட்ட": 8766,
      "நாடு": 8767,
      "மார்": 8768,
      "யும்,": 8769,
      "லானது": 8770,
      "வீ": 8771,
      "வூ": 8772,
      "வகர்": 8773,
      "ோகி": 8774,
      "ௌரிய": 8775,
      "▁औ": 8776,
      "▁भा": 8777,
      "▁37": 8778,
      "▁led": 8779,
      "▁ले": 8780,
      "▁भाग": 8781,
      "▁[Y": 8782,
      "▁[य": 8783,
      "▁[ह": 8784,
      "▁[ஜ": 8785,
      "▁\"य": 8786,
      "anchi": 8787,
      "onal": 8788,
      "though": 8789,
      "](https://ta.wikipedia.org/wiki/A": 8790,
      "](https://ta.wikipedia.org/wiki/T": 8791,
      "](https://ta.wikipedia.org/wiki/ஐ": 8792,
      "](https://ta.wikipedia.org/wiki/The": 8793,
      "](https://ta.wikipedia.org/wiki/இந்து": 8794,
      "](https://ta.wikipedia.org/wiki/தேசிய": 8795,
      "ம்](https://ta.wikipedia.org/wiki/ம": 8796,
      "▁பீ": 8797,
      "▁பதிவாளர்": 8798,
      "omo": 8799,
      "▁(199": 8800,
      "▁(2007),": 8801,
      "](https://hi.wikipedia.org/wiki/दक्षिण": 8802,
      "](https://hi.wikipedia.org/wiki/तमिल": 8803,
      "▁काल": 8804,
      "▁कॉंग्रेस": 8805,
      "ர்ஹ": 8806,
      "्रय": 8807,
      "▁மத்தியில்": 8808,
      "asht": 8809,
      "த்தட்ட": 8810,
      "▁கிழக்கு": 8811,
      "ள்வன": 8812,
      "भारतीय": 8813,
      "▁தய": 8814,
      "▁सभा": 8815,
      "▁सित": 8816,
      "▁समाज": 8817,
      "-1\")\n": 8818,
      "ent_value": 8819,
      "▁Century": 8820,
      "ingap": 8821,
      "▁இறு": 8822,
      "▁அள": 8823,
      "▁அடைய": 8824,
      "▁அடிப்பட": 8825,
      "atures": 8826,
      "சிதா": 8827,
      "▁मई": 8828,
      "▁मन": 8829,
      "▁मह": 8830,
      "▁मिल": 8831,
      "▁मशीन": 8832,
      "ப்புடி": 8833,
      "ve-": 8834,
      "த்ரியா": 8835,
      "ையும்,": 8836,
      "loth": 8837,
      "▁நகர": 8838,
      "▁2012.": 8839,
      "▁சீ": 8840,
      "▁சார்": 8841,
      "ாகக்": 8842,
      "ices": 8843,
      "ेंगल": 8844,
      "▁ஆட்சிய": 8845,
      "▁ஆணையர்": 8846,
      "டுக": 8847,
      "र्ध": 8848,
      "](https://hi.wikipedia.org/wiki/भारत_के_राज्य": 8849,
      "ண்டை": 8850,
      "லைவர்": 8851,
      "]](https://ta.wikipedia.org/wiki/இந்தியா#cite_note-Combined": 8852,
      "्तु": 8853,
      "urk": 8854,
      "2649": 8855,
      "-4\")\n": 8856,
      "▁Dyson": 8857,
      "▁Desert": 8858,
      "▁में,": 8859,
      "▁Bharat": 8860,
      "▁अभ": 8861,
      "▁எடுத்து": 8862,
      "▁எதிர்": 8863,
      "irz": 8864,
      "iger": 8865,
      "▁when": 8866,
      "11)": 8867,
      "_(भारत)": 8868,
      "ிலும்": 8869,
      "ிலாளர்": 8870,
      "_பே": 8871,
      "▁जब": 8872,
      "308": 8873,
      "▁Global": 8874,
      "oples": 8875,
      "▁rel": 8876,
      "180": 8877,
      "▁द्वीप": 8878,
      "ற்கை": 8879,
      "13.": 8880,
      "147": 8881,
      "-9\")\n": 8882,
      "▁नव": 8883,
      "abour": 8884,
      "ப்பட்டன.[[": 8885,
      "_से": 8886,
      "_साम": 8887,
      "வைச்": 8888,
      "▁குடி": 8889,
      "▁குழு": 8890,
      "▁Library": 8891,
      "டைகள்": 8892,
      "காதார": 8893,
      "▁व्या": 8894,
      "▁[↑](https://ta.wikipedia.org/wiki/இந்தியா#cite_ref-FOOTNOTEStein1998": 8895,
      "bove": 8896,
      "489": 8897,
      "ிருஷ்": 8898,
      "விட": 8899,
      "▁Kumar": 8900,
      "லிப": 8901,
      "ாளர்கள": 8902,
      "▁den": 8903,
      "]](https://hi.wikipedia.org/wiki/भारत#cite_note-pib": 8904,
      "_Th": 8905,
      "▁गई": 8906,
      "ड़िया": 8907,
      "▁\"Ch": 8908,
      "▁शहर": 8909,
      "▁[मध्य": 8910,
      "▁பாறை": 8911,
      "▁பாணிய": 8912,
      "म्भ": 8913,
      "டியின": 8914,
      "perCol": 8915,
      "-107-0": 8916,
      "_के_अन": 8917,
      "மிழ": 8918,
      "▁சமவெளி": 8919,
      "संधान": 8920,
      "▁[மாநில": 8921,
      "त्तरी": 8922,
      "▁அமைந்துள்ளது.": 8923,
      "_River": 8924,
      "▁लिये": 8925,
      "orities/": 8926,
      "▁[தில்லி": 8927,
      "](https://ta.wikipedia.org/wiki/தில்லி": 8928,
      "ச்சிப்புடி": 8929,
      "▁यूनिवर्सिट": 8930,
      "▁மாவட்ட": 8931,
      "▁வென்று": 8932,
      "மையை": 8933,
      "_ஆற்றல்": 8934,
      "▁வேலை": 8935,
      "▁வேளாண்மை": 8936,
      "வெளிய": 8937,
      "hosh": 8938,
      "முக": 8939,
[...]
